unsigned char quantized_model_tflite[] = {
  0x1c, 0x00, 0x00, 0x00, 0x54, 0x46, 0x4c, 0x33, 0x14, 0x00, 0x20, 0x00,
  0x1c, 0x00, 0x18, 0x00, 0x14, 0x00, 0x10, 0x00, 0x0c, 0x00, 0x00, 0x00,
  0x08, 0x00, 0x04, 0x00, 0x14, 0x00, 0x00, 0x00, 0x1c, 0x00, 0x00, 0x00,
  0x80, 0x00, 0x00, 0x00, 0xd8, 0x00, 0x00, 0x00, 0x94, 0x11, 0x01, 0x00,
  0xa4, 0x11, 0x01, 0x00, 0xcc, 0x29, 0x01, 0x00, 0x03, 0x00, 0x00, 0x00,
  0x01, 0x00, 0x00, 0x00, 0x04, 0x00, 0x00, 0x00, 0xb6, 0xe9, 0xfe, 0xff,
  0x0c, 0x00, 0x00, 0x00, 0x1c, 0x00, 0x00, 0x00, 0x38, 0x00, 0x00, 0x00,
  0x0f, 0x00, 0x00, 0x00, 0x73, 0x65, 0x72, 0x76, 0x69, 0x6e, 0x67, 0x5f,
  0x64, 0x65, 0x66, 0x61, 0x75, 0x6c, 0x74, 0x00, 0x01, 0x00, 0x00, 0x00,
  0x04, 0x00, 0x00, 0x00, 0x9c, 0xff, 0xff, 0xff, 0x2e, 0x00, 0x00, 0x00,
  0x04, 0x00, 0x00, 0x00, 0x06, 0x00, 0x00, 0x00, 0x6f, 0x75, 0x74, 0x70,
  0x75, 0x74, 0x00, 0x00, 0x01, 0x00, 0x00, 0x00, 0x04, 0x00, 0x00, 0x00,
  0xba, 0xe9, 0xfe, 0xff, 0x04, 0x00, 0x00, 0x00, 0x05, 0x00, 0x00, 0x00,
  0x69, 0x6e, 0x70, 0x75, 0x74, 0x00, 0x00, 0x00, 0x02, 0x00, 0x00, 0x00,
  0x34, 0x00, 0x00, 0x00, 0x04, 0x00, 0x00, 0x00, 0xdc, 0xff, 0xff, 0xff,
  0x31, 0x00, 0x00, 0x00, 0x04, 0x00, 0x00, 0x00, 0x13, 0x00, 0x00, 0x00,
  0x43, 0x4f, 0x4e, 0x56, 0x45, 0x52, 0x53, 0x49, 0x4f, 0x4e, 0x5f, 0x4d,
  0x45, 0x54, 0x41, 0x44, 0x41, 0x54, 0x41, 0x00, 0x08, 0x00, 0x0c, 0x00,
  0x08, 0x00, 0x04, 0x00, 0x08, 0x00, 0x00, 0x00, 0x30, 0x00, 0x00, 0x00,
  0x04, 0x00, 0x00, 0x00, 0x13, 0x00, 0x00, 0x00, 0x6d, 0x69, 0x6e, 0x5f,
  0x72, 0x75, 0x6e, 0x74, 0x69, 0x6d, 0x65, 0x5f, 0x76, 0x65, 0x72, 0x73,
  0x69, 0x6f, 0x6e, 0x00, 0x32, 0x00, 0x00, 0x00, 0xb8, 0x10, 0x01, 0x00,
  0xb0, 0x10, 0x01, 0x00, 0x9c, 0x10, 0x01, 0x00, 0x88, 0x10, 0x01, 0x00,
  0x74, 0x10, 0x01, 0x00, 0x60, 0x10, 0x01, 0x00, 0x48, 0x10, 0x01, 0x00,
  0x34, 0x10, 0x01, 0x00, 0x20, 0x10, 0x01, 0x00, 0x08, 0x10, 0x01, 0x00,
  0xf8, 0x0d, 0x01, 0x00, 0xe4, 0x0d, 0x01, 0x00, 0xdc, 0x0d, 0x01, 0x00,
  0xd4, 0x0d, 0x01, 0x00, 0xbc, 0x0d, 0x01, 0x00, 0xac, 0x0b, 0x01, 0x00,
  0x9c, 0x07, 0x01, 0x00, 0x8c, 0x07, 0x00, 0x00, 0x7c, 0x03, 0x00, 0x00,
  0x6c, 0x01, 0x00, 0x00, 0x64, 0x01, 0x00, 0x00, 0x5c, 0x01, 0x00, 0x00,
  0x54, 0x01, 0x00, 0x00, 0x4c, 0x01, 0x00, 0x00, 0x44, 0x01, 0x00, 0x00,
  0x3c, 0x01, 0x00, 0x00, 0x34, 0x01, 0x00, 0x00, 0x2c, 0x01, 0x00, 0x00,
  0x24, 0x01, 0x00, 0x00, 0x1c, 0x01, 0x00, 0x00, 0x14, 0x01, 0x00, 0x00,
  0x0c, 0x01, 0x00, 0x00, 0x04, 0x01, 0x00, 0x00, 0xfc, 0x00, 0x00, 0x00,
  0xf4, 0x00, 0x00, 0x00, 0xec, 0x00, 0x00, 0x00, 0xe4, 0x00, 0x00, 0x00,
  0xdc, 0x00, 0x00, 0x00, 0xd4, 0x00, 0x00, 0x00, 0xcc, 0x00, 0x00, 0x00,
  0xc4, 0x00, 0x00, 0x00, 0xbc, 0x00, 0x00, 0x00, 0xb4, 0x00, 0x00, 0x00,
  0xac, 0x00, 0x00, 0x00, 0xa4, 0x00, 0x00, 0x00, 0x9c, 0x00, 0x00, 0x00,
  0x94, 0x00, 0x00, 0x00, 0x8c, 0x00, 0x00, 0x00, 0x6c, 0x00, 0x00, 0x00,
  0x04, 0x00, 0x00, 0x00, 0xf6, 0xea, 0xfe, 0xff, 0x04, 0x00, 0x00, 0x00,
  0x58, 0x00, 0x00, 0x00, 0x0c, 0x00, 0x00, 0x00, 0x08, 0x00, 0x0e, 0x00,
  0x08, 0x00, 0x04, 0x00, 0x08, 0x00, 0x00, 0x00, 0x10, 0x00, 0x00, 0x00,
  0x28, 0x00, 0x00, 0x00, 0x00, 0x00, 0x06, 0x00, 0x08, 0x00, 0x04, 0x00,
  0x06, 0x00, 0x00, 0x00, 0x04, 0x00, 0x00, 0x00, 0x01, 0x00, 0x00, 0x00,
  0xeb, 0x03, 0x00, 0x00, 0x00, 0x00, 0x0a, 0x00, 0x10, 0x00, 0x0c, 0x00,
  0x08, 0x00, 0x04, 0x00, 0x0a, 0x00, 0x00, 0x00, 0x01, 0x00, 0x00, 0x00,
  0x02, 0x00, 0x00, 0x00, 0x04, 0x00, 0x00, 0x00, 0x06, 0x00, 0x00, 0x00,
  0x32, 0x2e, 0x31, 0x33, 0x2e, 0x30, 0x00, 0x00, 0x5a, 0xeb, 0xfe, 0xff,
  0x04, 0x00, 0x00, 0x00, 0x10, 0x00, 0x00, 0x00, 0x32, 0x2e, 0x31, 0x32,
  0x2e, 0x30, 0x00, 0x00, 0x00, 0x00, 0x00, 0x00, 0x00, 0x00, 0x00, 0x00,
  0x00, 0xd9, 0xfe, 0xff, 0x04, 0xd9, 0xfe, 0xff, 0x08, 0xd9, 0xfe, 0xff,
  0x0c, 0xd9, 0xfe, 0xff, 0x10, 0xd9, 0xfe, 0xff, 0x14, 0xd9, 0xfe, 0xff,
  0x18, 0xd9, 0xfe, 0xff, 0x1c, 0xd9, 0xfe, 0xff, 0x20, 0xd9, 0xfe, 0xff,
  0x24, 0xd9, 0xfe, 0xff, 0x28, 0xd9, 0xfe, 0xff, 0x2c, 0xd9, 0xfe, 0xff,
  0x30, 0xd9, 0xfe, 0xff, 0x34, 0xd9, 0xfe, 0xff, 0x38, 0xd9, 0xfe, 0xff,
  0x3c, 0xd9, 0xfe, 0xff, 0x40, 0xd9, 0xfe, 0xff, 0x44, 0xd9, 0xfe, 0xff,
  0x48, 0xd9, 0xfe, 0xff, 0x4c, 0xd9, 0xfe, 0xff, 0x50, 0xd9, 0xfe, 0xff,
  0x54, 0xd9, 0xfe, 0xff, 0x58, 0xd9, 0xfe, 0xff, 0x5c, 0xd9, 0xfe, 0xff,
  0x60, 0xd9, 0xfe, 0xff, 0x64, 0xd9, 0xfe, 0xff, 0x68, 0xd9, 0xfe, 0xff,
  0x6c, 0xd9, 0xfe, 0xff, 0xe6, 0xeb, 0xfe, 0xff, 0x04, 0x00, 0x00, 0x00,
  0x00, 0x02, 0x00, 0x00, 0x17, 0xa0, 0xff, 0x41, 0x3f, 0x54, 0xd9, 0x2f,
  0xdb, 0x0b, 0xed, 0x1d, 0xf3, 0x46, 0x00, 0x4f, 0x3d, 0x19, 0xc6, 0xa7,
  0x48, 0x2d, 0x02, 0x01, 0x27, 0x10, 0x1a, 0x5a, 0xbc, 0x23, 0x24, 0x2a,
  0xc0, 0x4e, 0x04, 0x42, 0x18, 0x08, 0x3e, 0xc1, 0x3d, 0x29, 0xff, 0x48,
  0xe0, 0xfa, 0x32, 0xe1, 0x10, 0x69, 0x39, 0x1a, 0x3d, 0x44, 0x3a, 0x1e,
  0xa4, 0x51, 0xef, 0xc6, 0x1a, 0x4d, 0xf2, 0xce, 0x23, 0xdf, 0x95, 0xf3,
  0xb3, 0x74, 0xdf, 0xe9, 0xf9, 0xfd, 0xd2, 0xc5, 0x30, 0xc6, 0xed, 0xca,
  0x3f, 0x6a, 0xdf, 0x60, 0x26, 0xdc, 0x0d, 0x3c, 0xbe, 0xeb, 0x17, 0x5a,
  0x29, 0x03, 0xe1, 0x39, 0xbf, 0xd1, 0xfd, 0xbb, 0x07, 0x06, 0x50, 0xb7,
  0xfd, 0xbf, 0x9a, 0xda, 0xdc, 0xf5, 0xc8, 0x5f, 0xd7, 0x22, 0xd6, 0x95,
  0x27, 0x75, 0xc7, 0x4b, 0x1d, 0xd5, 0x21, 0x5b, 0x12, 0x75, 0xea, 0xd9,
  0x38, 0xcc, 0x0a, 0xcb, 0xd4, 0x8d, 0x2b, 0x39, 0x2c, 0x2f, 0x0b, 0x63,
  0xcc, 0xd1, 0x11, 0x3c, 0xe3, 0xbe, 0xc6, 0x36, 0xf6, 0xb2, 0xac, 0x21,
  0xc9, 0xd3, 0x53, 0xea, 0x18, 0x97, 0x0c, 0xee, 0xc7, 0xd9, 0xc8, 0xf6,
  0x03, 0xfc, 0xdf, 0x4f, 0xcd, 0xd5, 0xf2, 0x6e, 0x52, 0x41, 0xe0, 0x3e,
  0xd7, 0x94, 0x38, 0x1c, 0x3c, 0x8e, 0x19, 0x47, 0x05, 0xb1, 0xb4, 0x29,
  0xdb, 0x38, 0xf8, 0xee, 0x29, 0xdf, 0xf7, 0x12, 0xf9, 0xc4, 0x75, 0xd6,
  0x2c, 0x1d, 0x2a, 0x12, 0x9a, 0xca, 0x47, 0xbf, 0x71, 0xc9, 0xf8, 0x28,
  0x48, 0xdc, 0x2b, 0x23, 0x29, 0xd8, 0x18, 0x2d, 0x1b, 0xa9, 0x06, 0xd5,
  0xef, 0xff, 0xe7, 0xbd, 0x52, 0xdb, 0xb9, 0xec, 0xfd, 0x42, 0xe5, 0x3b,
  0xf7, 0x41, 0xe2, 0x31, 0x91, 0x05, 0x09, 0xac, 0xff, 0x59, 0xcf, 0xc3,
  0x2d, 0x55, 0xcb, 0xdb, 0xc4, 0xd7, 0x36, 0xe8, 0xd3, 0xfe, 0x43, 0x53,
  0xfc, 0xd3, 0xb3, 0x27, 0x06, 0x06, 0xbd, 0xc4, 0xa7, 0x19, 0x1c, 0x6d,
  0xbb, 0x21, 0xc4, 0xd7, 0x35, 0x01, 0x1d, 0x7a, 0xcd, 0xf9, 0x4a, 0x49,
  0x29, 0xdb, 0x22, 0x55, 0x11, 0xb3, 0x2f, 0xe0, 0x00, 0xa2, 0x10, 0x29,
  0xc7, 0xc4, 0xc1, 0xd2, 0xea, 0x0b, 0x0e, 0xb2, 0xcc, 0x20, 0xff, 0x40,
  0x42, 0xcc, 0x42, 0xf0, 0x94, 0x28, 0x75, 0xf5, 0x21, 0x22, 0x28, 0x51,
  0x2d, 0x33, 0xc3, 0x0d, 0xfb, 0x62, 0xff, 0x04, 0x3e, 0x0b, 0xef, 0x62,
  0x3e, 0x4c, 0x29, 0x0f, 0x16, 0x5c, 0x9a, 0x2e, 0x2b, 0x1a, 0xe2, 0x31,
  0x3f, 0x0d, 0x1f, 0xd6, 0xe3, 0x33, 0xd4, 0xa8, 0x57, 0xbb, 0x37, 0x16,
  0xdc, 0x33, 0x19, 0x07, 0xff, 0x9d, 0x38, 0x17, 0xfa, 0x23, 0x33, 0x09,
  0x46, 0xc9, 0x15, 0x3e, 0x74, 0xe7, 0xc6, 0xc6, 0xfb, 0x57, 0x02, 0x40,
  0x1b, 0x4b, 0xdc, 0x18, 0x3c, 0x50, 0x1b, 0xc0, 0x2b, 0x13, 0xf4, 0x0b,
  0x38, 0xf5, 0x1b, 0xd9, 0xd2, 0x75, 0xd7, 0xfa, 0x3b, 0xcf, 0x18, 0xf5,
  0x2e, 0x1c, 0x3d, 0xcf, 0x1f, 0x5b, 0x18, 0x32, 0x06, 0x4f, 0x15, 0x07,
  0xd7, 0x97, 0xb3, 0xea, 0x1b, 0x68, 0x0c, 0x53, 0x1c, 0x4f, 0x2f, 0xeb,
  0x26, 0x44, 0xe8, 0xc7, 0xd5, 0x83, 0x3d, 0x10, 0x16, 0x46, 0x4a, 0xec,
  0x0c, 0x8d, 0xf6, 0x14, 0x12, 0x7b, 0x40, 0xe1, 0x37, 0x53, 0x6e, 0xc9,
  0xa3, 0x20, 0x4f, 0x28, 0x83, 0xe1, 0x0e, 0x52, 0xfc, 0xfd, 0x4b, 0x2f,
  0xf9, 0xf9, 0x0c, 0x6b, 0xd2, 0x82, 0x55, 0xf8, 0x31, 0x2d, 0x32, 0x14,
  0x3e, 0xe8, 0xcb, 0xab, 0x4c, 0x14, 0x35, 0x49, 0x1f, 0xda, 0x47, 0xd2,
  0xfa, 0x23, 0xd1, 0x81, 0xf6, 0x58, 0x03, 0xf8, 0x11, 0x6b, 0x14, 0x35,
  0x58, 0x35, 0x33, 0x1d, 0x08, 0x58, 0xe9, 0xc7, 0xf8, 0x43, 0x34, 0x4f,
  0xf2, 0xed, 0xfe, 0xff, 0x04, 0x00, 0x00, 0x00, 0x00, 0x04, 0x00, 0x00,
  0xfe, 0xfc, 0xff, 0xff, 0xc4, 0x07, 0x00, 0x00, 0xa8, 0xc2, 0xff, 0xff,
  0x44, 0xfc, 0xff, 0xff, 0xd9, 0xee, 0xff, 0xff, 0x28, 0x3c, 0x00, 0x00,
  0x15, 0x32, 0x00, 0x00, 0x29, 0xcd, 0xff, 0xff, 0xe7, 0xce, 0xff, 0xff,
  0xf4, 0xf2, 0xff, 0xff, 0x0a, 0x05, 0x00, 0x00, 0x5e, 0x06, 0x00, 0x00,
  0x42, 0xe3, 0xff, 0xff, 0x1e, 0xf1, 0xff, 0xff, 0x26, 0xf8, 0xff, 0xff,
  0xfb, 0x02, 0x00, 0x00, 0x89, 0x14, 0x00, 0x00, 0xb0, 0x06, 0x00, 0x00,
  0xa2, 0x2c, 0x00, 0x00, 0xad, 0xf5, 0xff, 0xff, 0xc5, 0x1c, 0x00, 0x00,
  0x49, 0x08, 0x00, 0x00, 0x7b, 0x2f, 0x00, 0x00, 0xe5, 0x15, 0x00, 0x00,
  0x53, 0xee, 0xff, 0xff, 0x72, 0xf9, 0xff, 0xff, 0xa8, 0x26, 0x00, 0x00,
  0x71, 0x26, 0x00, 0x00, 0xb8, 0xe9, 0xff, 0xff, 0x43, 0x1a, 0x00, 0x00,
  0xb8, 0x0a, 0x00, 0x00, 0x19, 0x0e, 0x00, 0x00, 0xd3, 0x1c, 0x00, 0x00,
  0x15, 0x21, 0x00, 0x00, 0x50, 0xe8, 0xff, 0xff, 0x8f, 0x01, 0x00, 0x00,
  0x42, 0xd3, 0xff, 0xff, 0xb6, 0x3e, 0x00, 0x00, 0xad, 0x33, 0x00, 0x00,
  0x19, 0x05, 0x00, 0x00, 0x2a, 0x29, 0x00, 0x00, 0x67, 0x37, 0x00, 0x00,
  0xec, 0xf9, 0xff, 0xff, 0x7b, 0x01, 0x00, 0x00, 0x41, 0xcb, 0xff, 0xff,
  0x4e, 0x0e, 0x00, 0x00, 0xf0, 0x31, 0x00, 0x00, 0x0a, 0xc2, 0xff, 0xff,
  0xbc, 0xf9, 0xff, 0xff, 0x81, 0x21, 0x00, 0x00, 0xb7, 0xd0, 0xff, 0xff,
  0x46, 0xf3, 0xff, 0xff, 0x4e, 0x21, 0x00, 0x00, 0x82, 0xfa, 0xff, 0xff,
  0xd7, 0x3c, 0x00, 0x00, 0xad, 0xec, 0xff, 0xff, 0x81, 0xa4, 0xff, 0xff,
  0x87, 0xef, 0xff, 0xff, 0xc6, 0x1b, 0x00, 0x00, 0x89, 0xf0, 0xff, 0xff,
  0x77, 0xb8, 0xff, 0xff, 0x90, 0x02, 0x00, 0x00, 0x79, 0xec, 0xff, 0xff,
  0xda, 0xcd, 0xff, 0xff, 0x21, 0xf7, 0xff, 0xff, 0x07, 0xf6, 0xff, 0xff,
  0x6b, 0xee, 0xff, 0xff, 0xa8, 0xe0, 0xff, 0xff, 0x23, 0xf6, 0xff, 0xff,
  0xfe, 0xee, 0xff, 0xff, 0xe3, 0x1b, 0x00, 0x00, 0x4e, 0xe4, 0xff, 0xff,
  0x74, 0x50, 0x00, 0x00, 0x04, 0xf3, 0xff, 0xff, 0x2b, 0x16, 0x00, 0x00,
  0x1f, 0xee, 0xff, 0xff, 0x23, 0x99, 0xff, 0xff, 0x52, 0x24, 0x00, 0x00,
  0x9a, 0xf0, 0xff, 0xff, 0xeb, 0x30, 0x00, 0x00, 0x6b, 0xfe, 0xff, 0xff,
  0xf2, 0xdf, 0xff, 0xff, 0x71, 0x15, 0x00, 0x00, 0x1b, 0x0f, 0x00, 0x00,
  0x82, 0x23, 0x00, 0x00, 0xf3, 0xec, 0xff, 0xff, 0xe8, 0x2f, 0x00, 0x00,
  0xef, 0x43, 0x00, 0x00, 0x80, 0xef, 0xff, 0xff, 0xf0, 0xfa, 0xff, 0xff,
  0xf2, 0xed, 0xff, 0xff, 0xb5, 0x0b, 0x00, 0x00, 0x72, 0x11, 0x00, 0x00,
  0x8e, 0xc7, 0xff, 0xff, 0x5c, 0x0a, 0x00, 0x00, 0x19, 0x33, 0x00, 0x00,
  0x9f, 0x04, 0x00, 0x00, 0xe5, 0x2b, 0x00, 0x00, 0x17, 0x0f, 0x00, 0x00,
  0x8e, 0xf0, 0xff, 0xff, 0xea, 0x1a, 0x00, 0x00, 0x7c, 0x25, 0x00, 0x00,
  0x3c, 0xeb, 0xff, 0xff, 0xbf, 0xf7, 0xff, 0xff, 0x24, 0xf5, 0xff, 0xff,
  0x53, 0xd3, 0xff, 0xff, 0xfc, 0x30, 0x00, 0x00, 0x18, 0xb0, 0xff, 0xff,
  0x85, 0xf9, 0xff, 0xff, 0xa1, 0xb1, 0xff, 0xff, 0xb7, 0xf7, 0xff, 0xff,
  0x85, 0xdf, 0xff, 0xff, 0xb5, 0xb7, 0xff, 0xff, 0x18, 0x2e, 0x00, 0x00,
  0x9f, 0x15, 0x00, 0x00, 0xbc, 0xde, 0xff, 0xff, 0xcf, 0x0a, 0x00, 0x00,
  0xf8, 0x00, 0x00, 0x00, 0x3d, 0xe8, 0xff, 0xff, 0xfc, 0xf6, 0xff, 0xff,
  0xfb, 0x0f, 0x00, 0x00, 0xeb, 0x12, 0x00, 0x00, 0x4d, 0x0d, 0x00, 0x00,
  0x32, 0xf8, 0xff, 0xff, 0xc6, 0xd5, 0xff, 0xff, 0x19, 0x0a, 0x00, 0x00,
  0x9d, 0xfd, 0xff, 0xff, 0xbc, 0x2b, 0x00, 0x00, 0xfe, 0xd8, 0xff, 0xff,
  0x0c, 0x05, 0x00, 0x00, 0x92, 0x41, 0x00, 0x00, 0x0d, 0xcd, 0xff, 0xff,
  0xf9, 0x02, 0x00, 0x00, 0x36, 0xf8, 0xff, 0xff, 0x82, 0xe6, 0xff, 0xff,
  0xb5, 0x01, 0x00, 0x00, 0xb9, 0x0b, 0x00, 0x00, 0x32, 0x03, 0x00, 0x00,
  0x40, 0x9f, 0xff, 0xff, 0xc2, 0xeb, 0xff, 0xff, 0xaf, 0xe1, 0xff, 0xff,
  0x4e, 0xf5, 0xff, 0xff, 0x08, 0xfd, 0xff, 0xff, 0x37, 0xfe, 0xff, 0xff,
  0x85, 0xbf, 0xff, 0xff, 0x8a, 0x0c, 0x00, 0x00, 0xf1, 0x2c, 0x00, 0x00,
  0xfc, 0xa3, 0xff, 0xff, 0x47, 0x28, 0x00, 0x00, 0x23, 0x05, 0x00, 0x00,
  0x7d, 0x17, 0x00, 0x00, 0x5a, 0xfe, 0xff, 0xff, 0xbd, 0xab, 0xff, 0xff,
  0xf8, 0x15, 0x00, 0x00, 0xef, 0x06, 0x00, 0x00, 0x62, 0x18, 0x00, 0x00,
  0x60, 0xe6, 0xff, 0xff, 0x84, 0xed, 0xff, 0xff, 0x6c, 0x11, 0x00, 0x00,
  0xf8, 0x08, 0x00, 0x00, 0x75, 0x12, 0x00, 0x00, 0x87, 0x9e, 0xff, 0xff,
  0xb6, 0x0e, 0x00, 0x00, 0xf9, 0x2c, 0x00, 0x00, 0xed, 0x19, 0x00, 0x00,
  0x53, 0xef, 0xff, 0xff, 0x7b, 0x09, 0x00, 0x00, 0xf8, 0xde, 0xff, 0xff,
  0x2d, 0x0e, 0x00, 0x00, 0xd3, 0xe8, 0xff, 0xff, 0xbb, 0xfb, 0xff, 0xff,
  0x3b, 0xfd, 0xff, 0xff, 0x9d, 0xa6, 0xff, 0xff, 0x01, 0x13, 0x00, 0x00,
  0x45, 0xfc, 0xff, 0xff, 0x33, 0xf4, 0xff, 0xff, 0x4e, 0x0a, 0x00, 0x00,
  0xb0, 0xd8, 0xff, 0xff, 0xfb, 0xe6, 0xff, 0xff, 0x8e, 0xb8, 0xff, 0xff,
  0x54, 0xf1, 0xff, 0xff, 0x3c, 0xd3, 0xff, 0xff, 0x69, 0xde, 0xff, 0xff,
  0xbb, 0xb3, 0xff, 0xff, 0xa5, 0x06, 0x00, 0x00, 0x13, 0x01, 0x00, 0x00,
  0x88, 0xee, 0xff, 0xff, 0x37, 0xef, 0xff, 0xff, 0x5c, 0x0e, 0x00, 0x00,
  0x40, 0xde, 0xff, 0xff, 0x72, 0x35, 0x00, 0x00, 0x7f, 0x22, 0x00, 0x00,
  0x7d, 0x09, 0x00, 0x00, 0xd9, 0xdb, 0xff, 0xff, 0x17, 0x47, 0x00, 0x00,
  0x4b, 0x29, 0x00, 0x00, 0x76, 0x26, 0x00, 0x00, 0xc5, 0xbb, 0xff, 0xff,
  0x79, 0xea, 0xff, 0xff, 0x7b, 0xed, 0xff, 0xff, 0xa0, 0x10, 0x00, 0x00,
  0x43, 0x11, 0x00, 0x00, 0x0e, 0xfd, 0xff, 0xff, 0x18, 0x05, 0x00, 0x00,
  0x1a, 0x01, 0x00, 0x00, 0x22, 0xb7, 0xff, 0xff, 0xd8, 0x03, 0x00, 0x00,
  0xfb, 0x0c, 0x00, 0x00, 0x0e, 0xf0, 0xff, 0xff, 0x10, 0x0a, 0x00, 0x00,
  0x17, 0x10, 0x00, 0x00, 0xb8, 0x0b, 0x00, 0x00, 0x34, 0x02, 0x00, 0x00,
  0xe0, 0x25, 0x00, 0x00, 0x5c, 0x16, 0x00, 0x00, 0xbc, 0x49, 0x00, 0x00,
  0x04, 0xed, 0xff, 0xff, 0x23, 0x1b, 0x00, 0x00, 0x3a, 0x0b, 0x00, 0x00,
  0xc6, 0xf9, 0xff, 0xff, 0x88, 0xef, 0xff, 0xff, 0x13, 0x32, 0x00, 0x00,
  0x58, 0xeb, 0xff, 0xff, 0x07, 0x10, 0x00, 0x00, 0xca, 0xb7, 0xff, 0xff,
  0x39, 0xf4, 0xff, 0xff, 0x50, 0xea, 0xff, 0xff, 0xff, 0xf9, 0xff, 0xff,
  0xa9, 0xf7, 0xff, 0xff, 0x81, 0xf2, 0xff, 0xff, 0x50, 0x22, 0x00, 0x00,
  0x56, 0xf7, 0xff, 0xff, 0x5e, 0x37, 0x00, 0x00, 0x0b, 0xee, 0xff, 0xff,
  0x09, 0xed, 0xff, 0xff, 0xfa, 0xf1, 0xff, 0xff, 0x8e, 0xfb, 0xff, 0xff,
  0x88, 0xd5, 0xff, 0xff, 0x48, 0x3e, 0x00, 0x00, 0x58, 0xf5, 0xff, 0xff,
  0x75, 0xe7, 0xff, 0xff, 0xf9, 0xc7, 0xff, 0xff, 0x62, 0x9e, 0xff, 0xff,
  0x9a, 0x1c, 0x00, 0x00, 0x7a, 0xe4, 0xff, 0xff, 0xc8, 0xec, 0xff, 0xff,
  0x86, 0x0d, 0x00, 0x00, 0x8a, 0x2b, 0x00, 0x00, 0xf6, 0xed, 0xff, 0xff,
  0x67, 0xf0, 0xff, 0xff, 0xa0, 0xfc, 0xff, 0xff, 0x7c, 0xa8, 0xff, 0xff,
  0xc4, 0x03, 0x00, 0x00, 0x10, 0x40, 0x00, 0x00, 0xd4, 0xc0, 0xff, 0xff,
  0xa5, 0xb9, 0xff, 0xff, 0xfe, 0xf1, 0xfe, 0xff, 0x04, 0x00, 0x00, 0x00,
  0x00, 0x00, 0x01, 0x00, 0x00, 0xef, 0x03, 0xfa, 0xfc, 0xed, 0xea, 0xfe,
  0x03, 0xf1, 0x00, 0x00, 0x02, 0x00, 0xfc, 0x00, 0xf2, 0xfd, 0x00, 0xfe,
  0x00, 0xed, 0xf1, 0xff, 0x02, 0x01, 0x00, 0x01, 0xfd, 0xf5, 0xfe, 0xff,
  0x00, 0xfc, 0xfb, 0xfb, 0x00, 0xf6, 0xff, 0xfb, 0xfe, 0xed, 0x01, 0xfd,
  0xfc, 0xfe, 0xff, 0x00, 0xf9, 0x00, 0x00, 0x02, 0xff, 0xfd, 0xf8, 0xf9,
  0xfb, 0xfe, 0xfd, 0xfe, 0xfc, 0xfb, 0x03, 0xd3, 0x01, 0xfe, 0xff, 0x02,
  0xfe, 0xfc, 0xd9, 0x02, 0xf9, 0xfe, 0xfe, 0xfc, 0xfe, 0x02, 0xff, 0x01,
  0xf9, 0xfe, 0xfd, 0xf4, 0xdd, 0xf8, 0x00, 0xf9, 0xfb, 0xfe, 0x00, 0xfe,
  0xfe, 0xfb, 0xf8, 0xfd, 0x00, 0xe5, 0xfe, 0x02, 0x01, 0xff, 0xf5, 0x00,
  0xff, 0x06, 0xff, 0x03, 0xff, 0xfd, 0x02, 0xfc, 0x02, 0xf8, 0x01, 0xff,
  0xf7, 0xf7, 0xfe, 0xf8, 0xfc, 0xff, 0xf2, 0xc4, 0x02, 0xd2, 0xf9, 0xff,
  0xfe, 0xfc, 0x01, 0xfa, 0xfe, 0xf2, 0xf9, 0x01, 0xf8, 0xf8, 0x04, 0xfe,
  0xff, 0xfe, 0x02, 0xff, 0x05, 0x02, 0xfe, 0xfe, 0xdb, 0xef, 0xf4, 0x00,
  0xfd, 0xea, 0x02, 0xff, 0xfe, 0x02, 0x00, 0xff, 0xff, 0xfe, 0xfc, 0xfb,
  0x00, 0xfa, 0x00, 0x01, 0xfe, 0xfa, 0x01, 0xf8, 0x02, 0xfe, 0xfa, 0xfc,
  0x02, 0x03, 0xfd, 0x01, 0xf8, 0x02, 0x05, 0x01, 0x02, 0x00, 0x00, 0xec,
  0xf9, 0xfd, 0xfd, 0xf6, 0x00, 0xff, 0x01, 0xf4, 0x00, 0x09, 0xf9, 0xfe,
  0x02, 0xfe, 0x00, 0x00, 0xfe, 0x02, 0xfc, 0xfe, 0xfc, 0xf7, 0xfd, 0xfa,
  0x01, 0x01, 0xfc, 0xf9, 0xf9, 0x01, 0xfd, 0x01, 0xfe, 0xe8, 0xff, 0x01,
  0x01, 0xff, 0xfa, 0x02, 0xfd, 0xfd, 0xfd, 0xff, 0xfa, 0xff, 0x00, 0xff,
  0x02, 0x00, 0x00, 0xf9, 0x03, 0x00, 0x07, 0x02, 0x07, 0x00, 0xfc, 0xfe,
  0x01, 0x01, 0xff, 0x02, 0xfb, 0xf7, 0xfb, 0x01, 0xfe, 0xff, 0x01, 0xfc,
  0xff, 0xfe, 0xfd, 0x01, 0x02, 0x01, 0xff, 0xfd, 0x04, 0xff, 0xff, 0xff,
  0xfe, 0xfe, 0xff, 0xfe, 0x00, 0xfd, 0xfc, 0xfd, 0x00, 0x02, 0x01, 0x00,
  0x00, 0x00, 0x01, 0xff, 0xfd, 0x00, 0xff, 0xfe, 0x02, 0x01, 0xfc, 0xff,
  0x01, 0x00, 0x02, 0x01, 0x00, 0xfe, 0xfd, 0xff, 0xfe, 0xfd, 0xff, 0xfe,
  0xfa, 0x01, 0xfe, 0x00, 0x00, 0xff, 0xfe, 0xff, 0x00, 0x02, 0x01, 0xff,
  0xfe, 0xfe, 0xff, 0x01, 0x00, 0xff, 0xff, 0x01, 0xff, 0xff, 0xfb, 0xff,
  0x01, 0xfe, 0xff, 0xfc, 0xfe, 0x01, 0xf8, 0xfc, 0xff, 0x01, 0x00, 0xfe,
  0xff, 0xff, 0x01, 0xff, 0xfe, 0x00, 0xfc, 0xf4, 0xff, 0xfc, 0x01, 0x02,
  0xff, 0xff, 0x01, 0xfd, 0xfe, 0xfe, 0xfe, 0x02, 0xff, 0x05, 0xff, 0x00,
  0xff, 0x00, 0xfe, 0x00, 0x00, 0x00, 0x02, 0x01, 0xff, 0xfe, 0xff, 0x01,
  0x02, 0xff, 0xfe, 0xfe, 0x00, 0xfd, 0xfa, 0xfd, 0xfe, 0x01, 0xfd, 0x00,
  0xff, 0x00, 0xff, 0x02, 0x02, 0x00, 0xfe, 0xff, 0x01, 0xff, 0xfd, 0xff,
  0x00, 0x02, 0xfc, 0xff, 0x01, 0xff, 0xfe, 0xfe, 0x00, 0x01, 0xfd, 0x00,
  0xff, 0xfd, 0xff, 0xfc, 0xff, 0x00, 0xff, 0x04, 0xfe, 0x01, 0x00, 0x00,
  0x01, 0xfc, 0xff, 0x01, 0xfa, 0x02, 0xff, 0x07, 0xfe, 0x02, 0xfe, 0x04,
  0xfe, 0xff, 0xff, 0x00, 0xfe, 0x03, 0x00, 0xfd, 0x01, 0xfd, 0x00, 0xfb,
  0x00, 0x01, 0xfe, 0xff, 0xfd, 0xfc, 0x01, 0xfc, 0xff, 0x00, 0x01, 0xfe,
  0xff, 0x01, 0xff, 0xff, 0xfe, 0xfd, 0x01, 0xfe, 0x01, 0xfd, 0xfd, 0xfe,
  0xff, 0xfd, 0xff, 0xff, 0x00, 0x02, 0x01, 0xff, 0x00, 0xfe, 0xf4, 0x02,
  0xf6, 0x00, 0x01, 0x00, 0x01, 0x04, 0x01, 0xfe, 0x02, 0x02, 0xfd, 0x00,
  0xfe, 0xff, 0x00, 0xf7, 0x01, 0x01, 0x01, 0x02, 0xfe, 0x01, 0x00, 0x00,
  0xff, 0x00, 0xff, 0xfe, 0x00, 0x00, 0xff, 0x01, 0x00, 0xff, 0xfe, 0xfe,
  0x00, 0xff, 0x00, 0xff, 0xfe, 0x02, 0xff, 0xff, 0xff, 0xff, 0x02, 0xff,
  0x01, 0x00, 0xff, 0x01, 0xff, 0x00, 0xff, 0xff, 0x00, 0x01, 0x00, 0xff,
  0x01, 0xff, 0x01, 0xfe, 0xff, 0x01, 0x01, 0x01, 0x01, 0x01, 0x01, 0x00,
  0xff, 0x00, 0x00, 0xfe, 0x01, 0xfe, 0xfe, 0x01, 0x01, 0x01, 0x01, 0x01,
  0x01, 0x01, 0x02, 0x00, 0x01, 0xff, 0x01, 0x00, 0x01, 0x00, 0x00, 0x02,
  0x00, 0xff, 0x01, 0xff, 0xff, 0x00, 0x00, 0x01, 0x01, 0x01, 0xff, 0x01,
  0x00, 0x00, 0xfe, 0x01, 0x02, 0x00, 0x01, 0x02, 0x00, 0xfe, 0xfe, 0xff,
  0xfe, 0xff, 0xff, 0x01, 0x00, 0x01, 0x01, 0x01, 0xff, 0x00, 0xff, 0xff,
  0x00, 0x01, 0x00, 0x00, 0x00, 0x01, 0x00, 0xff, 0x01, 0x01, 0x01, 0x01,
  0x01, 0xff, 0x00, 0xfe, 0x01, 0xff, 0xfe, 0x00, 0xff, 0x00, 0xff, 0x00,
  0x00, 0xff, 0x01, 0xfe, 0xff, 0x00, 0x01, 0x01, 0xff, 0xfe, 0x01, 0xff,
  0x00, 0xfe, 0x01, 0xff, 0x01, 0x00, 0xff, 0xff, 0x00, 0x00, 0xff, 0x01,
  0xfe, 0xff, 0xfe, 0xff, 0x00, 0x01, 0x00, 0xff, 0xff, 0x01, 0x01, 0x00,
  0x00, 0xff, 0x00, 0xff, 0xff, 0x01, 0xfe, 0x01, 0x01, 0xff, 0x00, 0x00,
  0xff, 0xff, 0xfe, 0x01, 0xfe, 0x00, 0x01, 0x01, 0x01, 0x01, 0x00, 0xff,
  0xff, 0xff, 0xff, 0xfe, 0x00, 0xfe, 0x02, 0xff, 0x00, 0x01, 0x01, 0x00,
  0x00, 0x01, 0x01, 0xff, 0x01, 0xff, 0x01, 0xff, 0x00, 0x01, 0xff, 0xff,
  0xff, 0xff, 0x01, 0xff, 0xfe, 0xfe, 0x01, 0xfe, 0x00, 0x00, 0x01, 0x00,
  0x00, 0x01, 0xff, 0xff, 0x01, 0xfe, 0x01, 0xfe, 0x01, 0xff, 0x01, 0xff,
  0xff, 0xff, 0x02, 0xff, 0x00, 0x01, 0x00, 0x00, 0xff, 0xfe, 0xfe, 0x02,
  0x00, 0x00, 0x00, 0xfe, 0xf5, 0x01, 0x00, 0x02, 0xfd, 0x04, 0x03, 0xd9,
  0x03, 0xfe, 0x01, 0x04, 0x03, 0xe5, 0xff, 0x06, 0x04, 0x06, 0x06, 0x01,
  0xf4, 0x03, 0x01, 0xd5, 0xe0, 0x00, 0xfd, 0x00, 0x02, 0x01, 0xfa, 0xfe,
  0xf8, 0x02, 0xfe, 0x00, 0x01, 0x02, 0xf7, 0xff, 0x05, 0x01, 0xfa, 0x02,
  0x02, 0x08, 0xf6, 0xff, 0x00, 0xfc, 0xff, 0x03, 0xfe, 0x01, 0x02, 0x00,
  0xfc, 0x00, 0x04, 0x03, 0xff, 0x0a, 0xe0, 0xfa, 0xff, 0xfa, 0xff, 0xfe,
  0xfc, 0x07, 0x00, 0x03, 0x02, 0x00, 0xfe, 0x03, 0x00, 0xeb, 0xfe, 0xfe,
  0xff, 0x00, 0x02, 0x02, 0x00, 0xfd, 0xf6, 0x02, 0xff, 0xfb, 0xfa, 0x07,
  0x01, 0x01, 0x02, 0x01, 0xe2, 0x01, 0xfd, 0xff, 0xf9, 0xfe, 0x00, 0xf7,
  0x01, 0xef, 0xe6, 0x02, 0xf7, 0x00, 0xf2, 0xf2, 0xff, 0x00, 0xf5, 0x01,
  0x02, 0x03, 0xe8, 0x04, 0x03, 0x01, 0x01, 0xff, 0xfe, 0x02, 0x02, 0xfb,
  0xfd, 0x03, 0xfe, 0xfe, 0x02, 0xfe, 0x03, 0xf2, 0x02, 0xff, 0x04, 0x09,
  0x02, 0xff, 0xf9, 0xf0, 0xfa, 0xe4, 0xfc, 0xf1, 0x01, 0x01, 0x00, 0xf5,
  0xf1, 0x05, 0xf6, 0xd9, 0x01, 0x00, 0xfe, 0x02, 0x08, 0xfe, 0x03, 0x04,
  0xef, 0x01, 0x06, 0x00, 0x06, 0xff, 0xff, 0x00, 0x00, 0xf4, 0x02, 0xfe,
  0xf6, 0x01, 0xff, 0x00, 0xff, 0x00, 0xf5, 0x00, 0xf9, 0xeb, 0xfe, 0xfe,
  0x00, 0xe2, 0x03, 0x01, 0x06, 0xfc, 0x0d, 0x01, 0xf6, 0x03, 0xff, 0xfc,
  0x02, 0xf8, 0xff, 0xf9, 0xfa, 0x00, 0xff, 0xfb, 0x00, 0x01, 0x01, 0x01,
  0xf9, 0xfb, 0x04, 0x01, 0x00, 0xeb, 0x04, 0x03, 0xff, 0x01, 0xe0, 0xe9,
  0x00, 0x00, 0x02, 0x01, 0x02, 0xe9, 0x01, 0x00, 0x01, 0x09, 0x00, 0xfe,
  0xfe, 0x03, 0xf7, 0xff, 0xff, 0xff, 0x03, 0xd7, 0xf2, 0x01, 0x01, 0x03,
  0xde, 0x02, 0xfd, 0x00, 0x00, 0xff, 0xe1, 0xfe, 0xfe, 0x02, 0xfe, 0x00,
  0x00, 0xff, 0xfe, 0xff, 0x02, 0x00, 0xff, 0x01, 0xff, 0xfe, 0x02, 0xff,
  0x01, 0xfe, 0x01, 0xfe, 0xff, 0x02, 0x00, 0xfe, 0xff, 0xff, 0x01, 0x00,
  0x00, 0xff, 0x01, 0x01, 0x01, 0xff, 0xff, 0xff, 0x00, 0x00, 0x01, 0x02,
  0x00, 0xff, 0xfe, 0x00, 0xfe, 0xff, 0xff, 0x01, 0x00, 0xff, 0x00, 0x00,
  0x01, 0xff, 0x01, 0x01, 0x00, 0xfe, 0xff, 0x00, 0x00, 0x01, 0x00, 0x01,
  0x01, 0x01, 0xff, 0x00, 0xfe, 0x00, 0x02, 0x00, 0x00, 0x01, 0x00, 0xff,
  0x00, 0x01, 0x01, 0x01, 0xff, 0xff, 0x00, 0xff, 0x01, 0x00, 0x00, 0x01,
  0xfe, 0x01, 0x00, 0xfe, 0xff, 0xff, 0x00, 0xfe, 0x00, 0x01, 0x00, 0xff,
  0x01, 0x00, 0xff, 0x00, 0xfe, 0xfe, 0xfe, 0xff, 0x01, 0xff, 0xfe, 0x01,
  0x00, 0x01, 0xfe, 0x00, 0xfe, 0xff, 0x01, 0x00, 0x00, 0xfe, 0xfe, 0x01,
  0x00, 0xff, 0x00, 0xff, 0xff, 0x00, 0xff, 0xff, 0xff, 0xff, 0xff, 0x02,
  0x01, 0x00, 0x00, 0x00, 0xff, 0x00, 0xfe, 0xff, 0x01, 0xff, 0x00, 0x00,
  0x02, 0x00, 0x01, 0x00, 0x01, 0xff, 0x00, 0xff, 0x01, 0x00, 0xff, 0x00,
  0xfe, 0x00, 0x00, 0x00, 0x01, 0x00, 0x00, 0x00, 0xff, 0xff, 0x01, 0xfe,
  0x01, 0x01, 0x00, 0x00, 0xfe, 0x00, 0xfe, 0xfe, 0x00, 0x01, 0xfe, 0x01,
  0x01, 0xff, 0xff, 0x02, 0x01, 0xff, 0x00, 0xfe, 0xfe, 0xff, 0x01, 0x01,
  0xfe, 0x01, 0xfe, 0x02, 0xff, 0x00, 0xff, 0xff, 0x01, 0x01, 0x01, 0x01,
  0xfe, 0x01, 0x01, 0xfe, 0x00, 0x01, 0x00, 0x00, 0x00, 0x00, 0x02, 0xfe,
  0x01, 0x01, 0x00, 0xff, 0x02, 0x01, 0xff, 0x00, 0x00, 0x00, 0xff, 0xff,
  0xfe, 0xfe, 0xfe, 0xff, 0x00, 0xff, 0x01, 0x00, 0xfe, 0x00, 0xff, 0xff,
  0xff, 0xfe, 0x00, 0xff, 0xfe, 0xff, 0xff, 0x01, 0x02, 0xff, 0x01, 0x02,
  0x01, 0xfe, 0xfe, 0x01, 0x01, 0xff, 0xff, 0xfe, 0x01, 0x01, 0x00, 0xfe,
  0x01, 0xfe, 0xfe, 0xfe, 0x01, 0x01, 0x01, 0x02, 0x00, 0x00, 0xfe, 0x00,
  0xff, 0xff, 0x00, 0x01, 0xfe, 0x01, 0xff, 0x01, 0x00, 0xff, 0xfe, 0x00,
  0xff, 0x02, 0x01, 0x00, 0xff, 0x01, 0xff, 0x02, 0x02, 0x01, 0xfe, 0xff,
  0x01, 0x01, 0x01, 0xff, 0xff, 0xff, 0xff, 0xff, 0x01, 0x02, 0xff, 0x00,
  0x01, 0xfe, 0x00, 0xfe, 0x01, 0xfe, 0x00, 0x01, 0x01, 0xff, 0x00, 0xff,
  0x00, 0x00, 0x00, 0xfe, 0xff, 0xfe, 0x00, 0xff, 0x01, 0x00, 0x00, 0x00,
  0xff, 0x01, 0xff, 0x00, 0xfe, 0xff, 0x00, 0xff, 0xff, 0x01, 0xff, 0x00,
  0x00, 0xff, 0xfe, 0xff, 0xfe, 0xff, 0x01, 0xfe, 0xff, 0x00, 0xff, 0xff,
  0x00, 0x00, 0xfe, 0x00, 0x00, 0x01, 0xfe, 0xff, 0xff, 0xff, 0x02, 0x00,
  0xfe, 0xff, 0xff, 0x01, 0x00, 0xff, 0xff, 0x01, 0x01, 0xfe, 0xfe, 0xff,
  0xff, 0x01, 0x01, 0x01, 0xff, 0x02, 0x01, 0x00, 0xff, 0xff, 0x01, 0x01,
  0x00, 0x00, 0x00, 0xff, 0x00, 0x00, 0x02, 0xff, 0xfe, 0xfe, 0x01, 0xfe,
  0x00, 0xfe, 0x00, 0xfe, 0xff, 0xff, 0x00, 0xfe, 0x01, 0x01, 0xfe, 0xfe,
  0xfe, 0xfe, 0x01, 0xff, 0x00, 0x01, 0x00, 0x00, 0x01, 0x00, 0x00, 0x00,
  0x01, 0xff, 0x01, 0x00, 0xfe, 0x00, 0x01, 0x01, 0x01, 0xff, 0x01, 0xfe,
  0x01, 0xfe, 0x01, 0x01, 0x01, 0x00, 0x00, 0xff, 0x00, 0xff, 0xfe, 0xfe,
  0xff, 0x00, 0xff, 0x01, 0x02, 0xfe, 0x02, 0x00, 0x01, 0x01, 0xff, 0x01,
  0xfe, 0x01, 0x01, 0x01, 0xff, 0x01, 0x01, 0x00, 0x00, 0xfe, 0xfe, 0x00,
  0x01, 0x00, 0x02, 0xff, 0x01, 0x01, 0xfe, 0xff, 0xff, 0x01, 0xff, 0xfe,
  0x01, 0x00, 0xff, 0x00, 0xff, 0xff, 0xff, 0xff, 0x00, 0x00, 0xfe, 0x00,
  0x01, 0x01, 0x01, 0x01, 0x01, 0x01, 0x00, 0x00, 0x00, 0x00, 0x01, 0x01,
  0xff, 0x01, 0x00, 0xff, 0xff, 0x01, 0x01, 0x01, 0x00, 0x00, 0x02, 0x01,
  0xff, 0xfe, 0xff, 0x01, 0x02, 0x01, 0x02, 0xfe, 0x02, 0xfe, 0x01, 0xfe,
  0xff, 0x00, 0x00, 0xff, 0xff, 0xfe, 0x01, 0x00, 0x00, 0x00, 0x01, 0x00,
  0x01, 0x02, 0x01, 0x00, 0x00, 0x00, 0xff, 0x01, 0xff, 0x00, 0xfe, 0x00,
  0x00, 0x02, 0xfe, 0x00, 0x01, 0xff, 0x01, 0xfe, 0x01, 0x00, 0x01, 0x00,
  0xff, 0xff, 0x00, 0xff, 0xfe, 0x01, 0x01, 0x01, 0x01, 0x02, 0x01, 0x01,
  0x00, 0xff, 0x00, 0xfe, 0x01, 0xff, 0x00, 0x00, 0xff, 0x00, 0xff, 0xff,
  0x00, 0x00, 0x00, 0x00, 0x00, 0xff, 0xff, 0xff, 0x00, 0x00, 0xff, 0x00,
  0xfe, 0x01, 0x01, 0x00, 0x00, 0xfe, 0xfe, 0x01, 0x00, 0x00, 0xfe, 0xff,
  0x00, 0x01, 0x01, 0x02, 0x00, 0x00, 0x00, 0x00, 0x00, 0xff, 0xff, 0xff,
  0xfe, 0x01, 0xff, 0x00, 0xfe, 0x00, 0x00, 0x01, 0x00, 0x01, 0x00, 0xff,
  0xfe, 0xff, 0xfe, 0x01, 0xff, 0x01, 0xff, 0xff, 0x02, 0x01, 0x00, 0x00,
  0xff, 0xff, 0xff, 0x01, 0xfe, 0x01, 0xff, 0x00, 0xff, 0xfe, 0xff, 0x00,
  0x01, 0x01, 0xff, 0x01, 0x01, 0x00, 0x01, 0xff, 0x01, 0x00, 0x01, 0xfe,
  0xfe, 0x00, 0x02, 0xff, 0xff, 0x01, 0xff, 0x00, 0xff, 0xfe, 0xfe, 0xfe,
  0xff, 0x01, 0x01, 0x00, 0x00, 0x01, 0x00, 0x01, 0x00, 0xfe, 0xfe, 0xff,
  0x02, 0x01, 0x01, 0x01, 0x00, 0x01, 0x01, 0x00, 0x00, 0x00, 0xff, 0x01,
  0xff, 0x00, 0xfe, 0xff, 0xff, 0x01, 0xfe, 0x01, 0xfe, 0x01, 0xfe, 0x01,
  0x00, 0xff, 0x01, 0x01, 0x00, 0x00, 0x01, 0xfe, 0xff, 0xfe, 0xff, 0xff,
  0xff, 0xff, 0x00, 0x00, 0x01, 0xff, 0x01, 0x00, 0xff, 0x01, 0xfe, 0xfe,
  0x00, 0x00, 0x00, 0xfe, 0x01, 0xfe, 0xff, 0x02, 0xff, 0xff, 0xff, 0x00,
  0x01, 0x01, 0x02, 0x01, 0x00, 0xfe, 0xff, 0x00, 0x00, 0x00, 0x01, 0x00,
  0x01, 0xff, 0x00, 0xff, 0x01, 0x02, 0xfe, 0x01, 0x02, 0xff, 0xff, 0x00,
  0x00, 0x01, 0xfe, 0x00, 0x01, 0xfe, 0xff, 0xfe, 0xfe, 0xff, 0x00, 0x01,
  0xff, 0xfe, 0x00, 0x01, 0x02, 0xff, 0x01, 0x00, 0xfe, 0x00, 0x00, 0x00,
  0xff, 0x00, 0xff, 0x00, 0xff, 0x00, 0xff, 0x01, 0x03, 0x00, 0x00, 0x01,
  0xff, 0x02, 0x01, 0x00, 0x00, 0xfd, 0xff, 0xfe, 0xfe, 0xfe, 0x00, 0x01,
  0xfe, 0xfe, 0x02, 0xff, 0xff, 0xff, 0xfe, 0x01, 0xff, 0x01, 0xfe, 0x00,
  0x01, 0xff, 0xff, 0xfd, 0xff, 0x00, 0xff, 0xff, 0x00, 0x01, 0x01, 0x01,
  0x00, 0xff, 0xfe, 0x01, 0x00, 0xff, 0x00, 0x00, 0xff, 0x00, 0x01, 0x05,
  0xff, 0xfe, 0xff, 0x00, 0x01, 0xff, 0x01, 0xff, 0x01, 0xff, 0xfe, 0xff,
  0xff, 0xff, 0xff, 0xfe, 0xff, 0x00, 0xff, 0x01, 0xfe, 0x01, 0xff, 0xfe,
  0x02, 0x01, 0x01, 0xfe, 0x00, 0xff, 0xff, 0xfe, 0x01, 0xfe, 0x01, 0x00,
  0xfd, 0xff, 0xfe, 0x00, 0xfe, 0x00, 0x00, 0xff, 0xff, 0x00, 0x00, 0xfd,
  0xfe, 0xff, 0x01, 0xff, 0xfe, 0x02, 0xfe, 0x01, 0xff, 0xff, 0x01, 0x00,
  0x00, 0x00, 0x00, 0xff, 0x00, 0xff, 0xfe, 0xff, 0x00, 0x00, 0x00, 0x00,
  0x01, 0xff, 0x02, 0x01, 0x00, 0xff, 0xff, 0x00, 0x00, 0x02, 0xfe, 0xfe,
  0xfe, 0x00, 0xff, 0x01, 0x01, 0xff, 0x01, 0x01, 0x01, 0xff, 0x01, 0xfe,
  0x01, 0xfe, 0xfe, 0x01, 0xfe, 0x01, 0xff, 0xff, 0x01, 0xfe, 0xff, 0xff,
  0xff, 0xff, 0x01, 0x00, 0x01, 0xff, 0x00, 0x00, 0x01, 0x00, 0x00, 0x00,
  0x00, 0xff, 0x01, 0xff, 0xff, 0x00, 0x01, 0x01, 0x01, 0xfd, 0x01, 0x01,
  0x01, 0x00, 0xff, 0x01, 0x00, 0xff, 0xff, 0x02, 0x00, 0xfe, 0x00, 0xff,
  0xfe, 0x04, 0xf6, 0x04, 0x02, 0x03, 0x01, 0xf0, 0x02, 0xfc, 0xfd, 0x04,
  0x01, 0x00, 0x01, 0xfd, 0x00, 0x00, 0x00, 0x00, 0x02, 0x03, 0x00, 0x00,
  0xfc, 0x0e, 0xfd, 0xfe, 0x01, 0x00, 0xfd, 0x01, 0x01, 0x01, 0xff, 0x00,
  0x02, 0x01, 0x01, 0xfe, 0xfd, 0xfe, 0xff, 0x03, 0xfb, 0x01, 0xff, 0x07,
  0x03, 0x00, 0x01, 0x00, 0x03, 0xff, 0x02, 0xfe, 0x02, 0xfd, 0xff, 0x01,
  0xf2, 0xf8, 0xfb, 0xf4, 0xff, 0x01, 0xff, 0xf7, 0x00, 0xf0, 0xff, 0xf5,
  0x03, 0xff, 0xfe, 0xfe, 0xfc, 0x02, 0x01, 0x02, 0x02, 0xfa, 0x04, 0x03,
  0x01, 0xff, 0x00, 0x01, 0x00, 0x05, 0xfd, 0x04, 0x02, 0x01, 0xff, 0x04,
  0x01, 0x00, 0xff, 0xf9, 0xfd, 0xfd, 0x00, 0x01, 0xfd, 0xe4, 0x00, 0xf9,
  0x04, 0xf6, 0xfe, 0xf2, 0x00, 0x00, 0x01, 0xf9, 0x02, 0x04, 0xee, 0xff,
  0x02, 0x03, 0x03, 0x00, 0xfa, 0x02, 0x01, 0x01, 0xfe, 0x00, 0x01, 0x01,
  0xff, 0xff, 0xfc, 0x05, 0xfd, 0x03, 0xff, 0xe9, 0xfb, 0x04, 0x02, 0x06,
  0xfa, 0xff, 0x00, 0xf1, 0x02, 0x02, 0x03, 0xff, 0xfe, 0x00, 0x00, 0x01,
  0xfd, 0xfb, 0x00, 0xfb, 0x01, 0x00, 0x02, 0x04, 0xfc, 0x04, 0xf9, 0x00,
  0xfd, 0xfd, 0x0b, 0x03, 0x01, 0x01, 0x03, 0x00, 0x01, 0x01, 0x02, 0xf4,
  0xfe, 0x03, 0xef, 0xfc, 0x04, 0x03, 0xf9, 0x02, 0x00, 0xfb, 0xfd, 0x02,
  0xfa, 0xf9, 0xff, 0x00, 0x00, 0xf9, 0x01, 0xfa, 0x01, 0x02, 0x00, 0x01,
  0x06, 0xf9, 0x02, 0x02, 0xfd, 0x01, 0x00, 0x00, 0xfd, 0x02, 0x00, 0x02,
  0xff, 0xfd, 0x02, 0xfa, 0xfe, 0x00, 0xf9, 0xff, 0xf4, 0xf9, 0x01, 0x0e,
  0x02, 0x00, 0x04, 0x02, 0x05, 0xee, 0xff, 0xfb, 0xfd, 0x02, 0xff, 0x02,
  0x02, 0xf4, 0xe5, 0x00, 0xec, 0xff, 0xff, 0x05, 0xfc, 0xf5, 0x01, 0xf6,
  0x03, 0x03, 0xf4, 0xf4, 0x00, 0x01, 0xfe, 0x04, 0x02, 0x00, 0xff, 0xf0,
  0x01, 0x00, 0x00, 0xfc, 0xff, 0xe7, 0xfb, 0xff, 0x03, 0xfb, 0x00, 0x03,
  0xfe, 0x02, 0x01, 0xe0, 0xeb, 0xff, 0xff, 0x00, 0x03, 0x01, 0xf3, 0xfe,
  0x04, 0x00, 0x02, 0x02, 0xff, 0x00, 0x00, 0x01, 0xf7, 0xfd, 0xe5, 0xfa,
  0x04, 0xfb, 0xe8, 0x02, 0x01, 0xff, 0xff, 0xfc, 0x00, 0x01, 0x01, 0x08,
  0x04, 0x01, 0xfc, 0x01, 0xf7, 0xff, 0xe9, 0x02, 0xfa, 0x02, 0x00, 0x00,
  0xfc, 0xfd, 0xff, 0xfe, 0x01, 0xfa, 0xff, 0x03, 0x01, 0xef, 0xff, 0xfe,
  0x02, 0x04, 0x00, 0x03, 0x00, 0xf7, 0xff, 0xff, 0x01, 0xfd, 0xff, 0xf4,
  0xfe, 0x02, 0x02, 0xfd, 0xd2, 0xfe, 0x01, 0x01, 0xfe, 0xfc, 0x01, 0xe0,
  0xff, 0x03, 0xec, 0x02, 0xdc, 0x01, 0x01, 0x02, 0x01, 0x02, 0xd8, 0x05,
  0xff, 0xfd, 0xfe, 0x09, 0xfe, 0x00, 0xfe, 0x02, 0xfe, 0xff, 0x01, 0xff,
  0xfd, 0xfb, 0xfd, 0xfd, 0xfa, 0x02, 0x05, 0xe7, 0x03, 0xff, 0x02, 0xfe,
  0x05, 0xfe, 0xdb, 0xe9, 0xfe, 0xde, 0x00, 0xfe, 0x00, 0xfe, 0x01, 0xfe,
  0xfc, 0x04, 0xd8, 0xeb, 0xfe, 0x01, 0xe3, 0xff, 0xfd, 0xfd, 0xff, 0xff,
  0xfc, 0x00, 0x00, 0xff, 0xfc, 0xfe, 0xfd, 0xfc, 0x00, 0x01, 0xfd, 0x01,
  0xda, 0x00, 0x05, 0xff, 0x00, 0xfd, 0x05, 0x01, 0xda, 0xe7, 0xff, 0xff,
  0xfc, 0xf4, 0xef, 0x00, 0xff, 0xf0, 0xf6, 0x00, 0xeb, 0x04, 0x08, 0xf9,
  0x06, 0xfd, 0xfe, 0xda, 0xf2, 0x00, 0xfb, 0xe9, 0x03, 0x02, 0xee, 0xf7,
  0xe8, 0xfd, 0xef, 0x00, 0x00, 0xff, 0xf7, 0x01, 0x01, 0x01, 0xe9, 0xdd,
  0xff, 0x01, 0x02, 0x00, 0x00, 0xe8, 0x00, 0x00, 0xfe, 0xff, 0x01, 0xfe,
  0xfe, 0x00, 0xef, 0x01, 0x00, 0xfd, 0x02, 0xda, 0x07, 0xff, 0xf9, 0xfe,
  0xe9, 0x00, 0xff, 0x01, 0xfa, 0x01, 0xf7, 0xfd, 0xfc, 0x00, 0x00, 0xff,
  0xf6, 0x01, 0x00, 0xfc, 0xfe, 0xff, 0x00, 0xff, 0xff, 0x00, 0xff, 0x02,
  0x00, 0x00, 0xfe, 0xfe, 0x02, 0x00, 0xff, 0x01, 0xfd, 0xfd, 0xff, 0x01,
  0xff, 0xfc, 0x02, 0xf4, 0xfe, 0xf4, 0xff, 0x02, 0x01, 0xff, 0xff, 0xf7,
  0x00, 0x02, 0x01, 0xff, 0x01, 0x02, 0x00, 0xfe, 0xff, 0xf8, 0x00, 0xfd,
  0xfc, 0x01, 0xf0, 0xff, 0xf8, 0x02, 0xff, 0xfe, 0xf9, 0x01, 0xfd, 0x02,
  0xf7, 0xfe, 0x01, 0x01, 0x00, 0x00, 0xfe, 0xff, 0x01, 0xfe, 0xfc, 0xfd,
  0xff, 0xfe, 0xfe, 0xfe, 0xff, 0x02, 0xfe, 0xfe, 0x05, 0xff, 0x00, 0xff,
  0xfe, 0x01, 0xf4, 0xff, 0xf7, 0xf3, 0xfe, 0xfe, 0xff, 0x00, 0xf8, 0xff,
  0xfe, 0x02, 0x00, 0xfd, 0xfd, 0xff, 0xff, 0xff, 0xfe, 0x02, 0xfa, 0xf7,
  0x01, 0xfa, 0xfd, 0xfd, 0xfe, 0x00, 0xfb, 0xfe, 0xf1, 0xf8, 0x01, 0xff,
  0x01, 0xff, 0xff, 0xfd, 0xed, 0x01, 0xfe, 0xf4, 0x01, 0xff, 0xf4, 0x00,
  0xfc, 0xff, 0xfe, 0x02, 0xff, 0x00, 0xfd, 0x00, 0xfd, 0x00, 0xfe, 0xfe,
  0x03, 0xff, 0xfc, 0xf7, 0xf6, 0x00, 0xff, 0x00, 0x00, 0x00, 0x00, 0xff,
  0xff, 0xf5, 0xfe, 0x01, 0x01, 0xfe, 0xff, 0xff, 0x00, 0xfe, 0xfe, 0x00,
  0xff, 0xfe, 0x02, 0xff, 0xfc, 0xfd, 0xfc, 0xff, 0x00, 0xfe, 0xfc, 0xff,
  0xfe, 0x00, 0x01, 0x01, 0x01, 0xfc, 0x02, 0x01, 0xfe, 0xf7, 0xff, 0x00,
  0x02, 0x00, 0xff, 0xec, 0x00, 0xfe, 0xff, 0xfd, 0xff, 0x00, 0xff, 0xff,
  0xff, 0xfe, 0x00, 0x00, 0xff, 0xfe, 0x02, 0xfd, 0x01, 0x01, 0x00, 0xfe,
  0xfe, 0xfd, 0x01, 0x01, 0x03, 0x00, 0xfd, 0x01, 0xfe, 0xff, 0xfe, 0x01,
  0xfe, 0xff, 0x02, 0xfd, 0x02, 0x00, 0x01, 0xff, 0xff, 0x02, 0xfb, 0xff,
  0xfe, 0x01, 0x01, 0xff, 0x00, 0x00, 0x02, 0x00, 0x01, 0x0b, 0xf7, 0x00,
  0x02, 0xff, 0x00, 0x01, 0xff, 0xff, 0x00, 0x02, 0x01, 0xfe, 0xfe, 0x01,
  0x02, 0x00, 0x00, 0x01, 0x01, 0xff, 0x00, 0x01, 0x02, 0x00, 0x00, 0xfb,
  0xfe, 0xfc, 0x00, 0xfb, 0xfe, 0xfe, 0x01, 0x00, 0x00, 0xfd, 0x01, 0xf6,
  0xff, 0xf8, 0xff, 0xff, 0xff, 0xff, 0xfe, 0x01, 0xfe, 0xff, 0xfb, 0x00,
  0xf6, 0x01, 0xff, 0xff, 0x01, 0xfd, 0xfa, 0x02, 0xff, 0x01, 0x00, 0x01,
  0x01, 0x01, 0xff, 0x00, 0x02, 0x01, 0xff, 0x00, 0x01, 0x00, 0xf6, 0x00,
  0xfb, 0xff, 0xfe, 0x01, 0x01, 0xfa, 0xff, 0xfa, 0xf6, 0x00, 0xfb, 0xfe,
  0xf7, 0x00, 0x01, 0x00, 0x00, 0xff, 0xfe, 0xff, 0x00, 0xfe, 0x01, 0xfa,
  0xfc, 0x00, 0xfe, 0xff, 0xfc, 0xff, 0x00, 0xff, 0x00, 0x00, 0xfa, 0xf8,
  0x00, 0xf8, 0xff, 0x00, 0x00, 0xf8, 0xfe, 0xf5, 0x00, 0x01, 0xff, 0x01,
  0xfd, 0xfe, 0x01, 0x01, 0x01, 0xfc, 0xf8, 0xfa, 0xf7, 0xff, 0xff, 0x01,
  0x01, 0xff, 0xff, 0x00, 0xff, 0xfe, 0x02, 0x01, 0x00, 0x01, 0x00, 0xfe,
  0x01, 0xf9, 0x00, 0xff, 0xf9, 0xfe, 0x00, 0x02, 0x02, 0xff, 0x01, 0xfb,
  0xff, 0xff, 0xff, 0x00, 0x00, 0x01, 0x01, 0xff, 0x00, 0x01, 0xff, 0xff,
  0x00, 0x01, 0xfb, 0x01, 0x01, 0x01, 0xff, 0x01, 0x00, 0x01, 0x01, 0xfb,
  0xff, 0xfb, 0xff, 0x00, 0xff, 0x01, 0x00, 0xff, 0xff, 0x03, 0xfe, 0xff,
  0x02, 0x00, 0x00, 0x00, 0xff, 0x01, 0xfe, 0xf8, 0x00, 0xf8, 0xfe, 0x01,
  0x01, 0xfa, 0xfe, 0xff, 0xff, 0xf5, 0x00, 0x01, 0xfe, 0xfe, 0x01, 0xf9,
  0x01, 0xfc, 0x00, 0x01, 0x02, 0xfe, 0x01, 0xfc, 0x00, 0x01, 0xfe, 0xfc,
  0xf4, 0xff, 0x00, 0xff, 0xff, 0x01, 0xff, 0x00, 0xff, 0xff, 0xfb, 0x01,
  0xfe, 0x01, 0xff, 0xfe, 0x00, 0xff, 0x01, 0xfe, 0x02, 0x01, 0x00, 0xf9,
  0xff, 0xfe, 0xff, 0x01, 0xff, 0x00, 0x00, 0x01, 0x04, 0x03, 0x01, 0xfb,
  0xfb, 0xff, 0x02, 0x02, 0xfa, 0x00, 0xfd, 0x03, 0x02, 0x03, 0x01, 0xfe,
  0x01, 0x02, 0x01, 0xfb, 0xfe, 0xfb, 0x01, 0xfd, 0xfe, 0xf6, 0x00, 0xe1,
  0xf6, 0x01, 0x01, 0xfa, 0x00, 0x00, 0xfd, 0xe8, 0x02, 0x02, 0x01, 0x02,
  0xff, 0x02, 0x01, 0x01, 0xf8, 0xed, 0x01, 0xfd, 0xe7, 0xf3, 0x02, 0x00,
  0xf7, 0xfb, 0x00, 0xff, 0xff, 0x03, 0xff, 0x00, 0xff, 0xf8, 0xfb, 0x01,
  0x03, 0x03, 0x05, 0x00, 0x02, 0xfe, 0xca, 0xff, 0xfe, 0xff, 0xfb, 0xfa,
  0xf9, 0xff, 0x00, 0x02, 0x05, 0x03, 0x03, 0x03, 0xfe, 0xff, 0xff, 0x02,
  0xcf, 0x03, 0x00, 0x02, 0xf3, 0xff, 0xec, 0xf5, 0xff, 0x02, 0x04, 0xf3,
  0xe3, 0x04, 0x03, 0xfd, 0xff, 0xff, 0xff, 0xff, 0xff, 0x02, 0xf6, 0xff,
  0x02, 0x01, 0xfc, 0xff, 0xfe, 0xd4, 0x00, 0xf9, 0x01, 0x06, 0xf7, 0xfe,
  0xfb, 0x00, 0xf6, 0x02, 0x01, 0xf7, 0x00, 0x02, 0x01, 0xfa, 0x04, 0x02,
  0xfa, 0x00, 0xf8, 0x02, 0xfe, 0xf1, 0xe2, 0xfe, 0x05, 0xf5, 0x00, 0xf6,
  0xfe, 0xff, 0xeb, 0x02, 0x03, 0xfa, 0x01, 0x01, 0x02, 0xf9, 0x00, 0x01,
  0x03, 0xff, 0x01, 0xf7, 0x03, 0xff, 0xfb, 0xff, 0x01, 0xe1, 0x01, 0xf9,
  0xe7, 0xfa, 0xff, 0x0e, 0xfb, 0xf9, 0x04, 0x00, 0xed, 0x00, 0xf8, 0xf1,
  0x02, 0xff, 0x00, 0x00, 0x03, 0x02, 0x01, 0xff, 0x03, 0x00, 0xff, 0xfc,
  0xf8, 0xfd, 0x01, 0xf8, 0x00, 0x00, 0x00, 0x02, 0xff, 0xfe, 0x01, 0xff,
  0x00, 0xff, 0x01, 0x02, 0xfc, 0x01, 0x01, 0xe4, 0xf9, 0x00, 0x00, 0xf6,
  0xff, 0xeb, 0x00, 0xfe, 0xfb, 0x01, 0x01, 0x03, 0x00, 0xff, 0xfa, 0xfd,
  0xff, 0xf9, 0x02, 0xff, 0xf8, 0x02, 0x00, 0xfc, 0xff, 0xfd, 0x00, 0x02,
  0x01, 0x03, 0x01, 0x04, 0x03, 0x02, 0x00, 0x01, 0xff, 0x00, 0xff, 0xff,
  0x00, 0xfe, 0x01, 0xfe, 0x00, 0x00, 0x01, 0x01, 0xff, 0x01, 0x02, 0xfe,
  0xff, 0x00, 0x01, 0x00, 0x00, 0xff, 0x00, 0x00, 0xfe, 0x00, 0x01, 0xfe,
  0x00, 0xfe, 0x00, 0xfe, 0xff, 0x01, 0x01, 0xff, 0xfe, 0x00, 0x02, 0xfe,
  0xff, 0xff, 0x01, 0xff, 0xff, 0x01, 0xff, 0x01, 0x01, 0x00, 0xfe, 0x01,
  0xff, 0x01, 0x00, 0xfe, 0x00, 0xff, 0xff, 0xff, 0xfe, 0x00, 0x01, 0x00,
  0xfe, 0x01, 0x00, 0x00, 0x00, 0x00, 0x01, 0x01, 0x00, 0xfe, 0x00, 0xff,
  0xff, 0x01, 0x00, 0xfe, 0x01, 0x01, 0x00, 0x01, 0x01, 0x02, 0x01, 0xff,
  0x01, 0x01, 0xfe, 0x00, 0xff, 0x00, 0xff, 0xff, 0xff, 0xfe, 0xff, 0x01,
  0x02, 0x00, 0xff, 0x01, 0x00, 0x00, 0xfe, 0x02, 0x01, 0x00, 0x00, 0xff,
  0x00, 0x01, 0x01, 0x01, 0x01, 0xff, 0xff, 0xff, 0x00, 0xff, 0x01, 0xff,
  0x01, 0x00, 0x00, 0x00, 0xff, 0xff, 0xfe, 0x00, 0x01, 0x01, 0xff, 0x00,
  0x00, 0x00, 0x00, 0x00, 0xff, 0x01, 0xff, 0xff, 0xff, 0x00, 0x00, 0x00,
  0x00, 0xff, 0xff, 0xfe, 0x02, 0x01, 0xff, 0x01, 0x00, 0xfe, 0xfe, 0x00,
  0x00, 0x01, 0x00, 0x00, 0xfe, 0xff, 0x01, 0x00, 0xfe, 0x01, 0xfe, 0x01,
  0x00, 0x01, 0x01, 0x01, 0xff, 0x01, 0x00, 0x01, 0x00, 0xff, 0x01, 0x02,
  0xff, 0xff, 0xff, 0x00, 0xff, 0xff, 0xff, 0x01, 0x02, 0xfe, 0xff, 0x00,
  0xff, 0x00, 0xff, 0x00, 0x01, 0xfe, 0xff, 0xff, 0xff, 0x00, 0x00, 0x01,
  0xff, 0xff, 0xfe, 0x02, 0x01, 0x01, 0x00, 0xff, 0xff, 0x00, 0x00, 0x01,
  0xfe, 0x01, 0x02, 0x00, 0xff, 0x02, 0x01, 0x01, 0x00, 0x01, 0x01, 0x00,
  0xff, 0xff, 0xfe, 0x01, 0xff, 0x00, 0xff, 0xff, 0x00, 0xff, 0x01, 0xff,
  0x00, 0x01, 0xff, 0x01, 0x01, 0x00, 0x01, 0xff, 0x01, 0xff, 0x00, 0x00,
  0xff, 0x00, 0xfb, 0xff, 0xfd, 0x04, 0x02, 0xeb, 0xfd, 0xf2, 0xf7, 0x02,
  0xfd, 0xfa, 0x02, 0x00, 0x00, 0x02, 0x00, 0xf4, 0x01, 0xff, 0x02, 0x00,
  0xeb, 0x07, 0xff, 0x00, 0xcb, 0xff, 0xfc, 0xfe, 0xff, 0x01, 0xee, 0xfd,
  0x00, 0x01, 0x02, 0x00, 0x01, 0xff, 0xee, 0xf9, 0xfc, 0x01, 0x02, 0xff,
  0xfd, 0xff, 0x01, 0xdc, 0x02, 0xff, 0x01, 0xf5, 0xfb, 0xc2, 0x01, 0xf5,
  0xf9, 0x00, 0xec, 0xfb, 0xda, 0xff, 0xba, 0xfd, 0x04, 0xf8, 0x00, 0xf8,
  0x01, 0xec, 0xff, 0xdd, 0x00, 0x02, 0xf6, 0x01, 0xfe, 0xfb, 0x00, 0x00,
  0xff, 0xf9, 0x01, 0xff, 0xb4, 0x09, 0xdd, 0x01, 0x01, 0xfc, 0xfe, 0x01,
  0x00, 0x02, 0xff, 0xc2, 0x00, 0x00, 0xec, 0xfd, 0xcf, 0xf0, 0xff, 0xfe,
  0xfd, 0xf3, 0x05, 0xf7, 0xff, 0xff, 0xff, 0xfd, 0x00, 0xfd, 0xe8, 0xf9,
  0x01, 0x02, 0xfe, 0xfc, 0xfb, 0xff, 0x00, 0x02, 0xfc, 0x02, 0x01, 0xfe,
  0x03, 0xfb, 0xdd, 0xfe, 0x00, 0xfe, 0xfd, 0xf6, 0xfb, 0x06, 0x01, 0xf9,
  0xfb, 0xfe, 0xfe, 0xf7, 0xfe, 0xff, 0x02, 0xfd, 0xf5, 0xfe, 0x02, 0x00,
  0xd2, 0xca, 0x01, 0xff, 0x02, 0xfb, 0x00, 0x02, 0xfe, 0xfd, 0xff, 0x00,
  0x00, 0xd0, 0x06, 0xff, 0xff, 0xff, 0x03, 0xf9, 0x03, 0xfd, 0xfe, 0xf0,
  0xef, 0xff, 0xf6, 0xfd, 0x00, 0xfd, 0xc3, 0xf3, 0x01, 0xf3, 0x01, 0x02,
  0xfd, 0xfe, 0x01, 0x03, 0x02, 0x05, 0xfb, 0xfb, 0x01, 0x01, 0x03, 0x00,
  0xfd, 0xff, 0xfa, 0x02, 0xb9, 0xfd, 0x02, 0xfd, 0xfb, 0x00, 0x03, 0xff,
  0xbb, 0x01, 0x01, 0xf8, 0xd4, 0x01, 0xf1, 0x01, 0xf9, 0xc1, 0xcf, 0xff,
  0x02, 0xf8, 0x01, 0xff, 0x01, 0xf8, 0xb6, 0xda, 0xff, 0xfd, 0x01, 0xff,
  0x02, 0xfa, 0xf2, 0xff, 0xef, 0xb6, 0x00, 0x03, 0xf1, 0xf9, 0x01, 0xfc,
  0xf9, 0xff, 0xed, 0xf8, 0xfc, 0xfc, 0x07, 0xfc, 0xfd, 0xff, 0xfe, 0xfe,
  0xf4, 0xf9, 0x05, 0xff, 0xf5, 0x01, 0xf6, 0x01, 0xfd, 0xff, 0x02, 0xfc,
  0x05, 0xff, 0xfd, 0x00, 0x00, 0xf5, 0x00, 0x03, 0xf0, 0xfb, 0x00, 0xf9,
  0x09, 0xf3, 0x01, 0xf2, 0x00, 0x01, 0x05, 0xf2, 0x01, 0xff, 0x02, 0xff,
  0x02, 0x00, 0x03, 0xeb, 0xff, 0xfb, 0x00, 0xfb, 0x01, 0x00, 0xff, 0x00,
  0xf9, 0xf4, 0x00, 0xff, 0xfe, 0x01, 0xff, 0xf9, 0xfc, 0xf7, 0xf4, 0x06,
  0x01, 0x00, 0xfb, 0x07, 0xfe, 0xe8, 0xfc, 0xf3, 0x00, 0xff, 0xf7, 0xf9,
  0x00, 0xff, 0xff, 0xfe, 0xf9, 0xff, 0x03, 0xff, 0xfa, 0x01, 0x00, 0xfe,
  0x04, 0xfb, 0xfa, 0x06, 0xfd, 0x01, 0xfd, 0xfd, 0x04, 0x04, 0x00, 0xe7,
  0xd2, 0xf8, 0x01, 0xf9, 0xe4, 0x0c, 0x04, 0xff, 0x00, 0x00, 0x08, 0x00,
  0x00, 0xfc, 0x01, 0x01, 0xdf, 0xfd, 0x00, 0xff, 0x06, 0xfa, 0xfe, 0xfc,
  0xfd, 0x01, 0xfc, 0xf8, 0xff, 0x00, 0xfc, 0x00, 0xe6, 0x00, 0xfb, 0x03,
  0x03, 0x03, 0xfc, 0xff, 0x01, 0x01, 0x01, 0xf9, 0xfb, 0xfe, 0xfc, 0xf6,
  0xfe, 0xfe, 0xfa, 0x00, 0x00, 0xfb, 0x02, 0xff, 0x02, 0x04, 0xfd, 0x01,
  0x07, 0x00, 0x04, 0x00, 0x00, 0xfe, 0xf8, 0xfc, 0xf2, 0xf8, 0xff, 0xf7,
  0xf4, 0xf1, 0xef, 0x02, 0xf6, 0xf4, 0xfa, 0xf9, 0xfa, 0x00, 0xfb, 0xf5,
  0xfc, 0x00, 0x00, 0xff, 0x02, 0xff, 0x01, 0x00, 0x06, 0x01, 0x02, 0xfe,
  0xfd, 0xfa, 0x07, 0xf4, 0xff, 0x02, 0x00, 0xff, 0xf8, 0xf6, 0xff, 0xfe,
  0x00, 0xff, 0x00, 0xff, 0xf8, 0x04, 0x01, 0xd5, 0xf5, 0x00, 0x00, 0x01,
  0x06, 0xec, 0xf3, 0xfd, 0x01, 0xfe, 0xff, 0x03, 0xff, 0x02, 0xf8, 0x00,
  0x03, 0xf9, 0x03, 0x03, 0xf3, 0x06, 0x01, 0x04, 0x00, 0xf7, 0xfd, 0x00,
  0xff, 0x08, 0x04, 0xf3, 0x01, 0xfb, 0xfa, 0x09, 0xf1, 0x02, 0xff, 0x00,
  0x00, 0x02, 0x01, 0xff, 0xff, 0xe3, 0xfd, 0x01, 0xfd, 0xfd, 0x02, 0x00,
  0xff, 0x02, 0x01, 0xfe, 0x01, 0x02, 0xff, 0x00, 0x01, 0xff, 0xff, 0x00,
  0x01, 0xf7, 0xff, 0xf7, 0x03, 0xfe, 0x01, 0xfe, 0x00, 0x00, 0x00, 0xf7,
  0x02, 0x01, 0xfe, 0x00, 0xf6, 0xff, 0xff, 0x00, 0xf7, 0xfd, 0x01, 0xff,
  0xfe, 0xf5, 0x01, 0xff, 0x02, 0xef, 0x01, 0xfe, 0xe0, 0xfd, 0x01, 0xff,
  0x00, 0xf6, 0xf2, 0xfc, 0xfe, 0xfd, 0xfe, 0xfe, 0x01, 0x01, 0xf9, 0x00,
  0xfd, 0x02, 0xf4, 0x03, 0xf7, 0xf2, 0x00, 0x00, 0xfd, 0xff, 0x02, 0x01,
  0xe8, 0xfd, 0xf5, 0x03, 0xf9, 0xfd, 0x01, 0xff, 0x05, 0x00, 0xf6, 0xff,
  0xff, 0x02, 0xed, 0xfd, 0x02, 0x00, 0x02, 0x02, 0xfe, 0xf7, 0xed, 0xf2,
  0x00, 0xfc, 0x01, 0xf7, 0x02, 0x00, 0x00, 0xff, 0x01, 0xfa, 0x02, 0xed,
  0xfc, 0x00, 0xf5, 0x02, 0xfc, 0x00, 0x01, 0xfe, 0x03, 0xef, 0x03, 0x00,
  0x01, 0xf7, 0xfd, 0xfd, 0xed, 0xff, 0xff, 0x00, 0xff, 0x00, 0xfc, 0x0a,
  0x00, 0xf5, 0x01, 0xee, 0x02, 0x01, 0x03, 0x01, 0x01, 0x00, 0x02, 0x00,
  0x00, 0xff, 0x01, 0x03, 0xfe, 0x00, 0xfe, 0xfe, 0x01, 0x01, 0x00, 0xfe,
  0x01, 0xff, 0xff, 0xfa, 0x01, 0xfe, 0x00, 0xf2, 0xe7, 0x01, 0x05, 0x00,
  0x03, 0x02, 0x00, 0xfb, 0xff, 0xfd, 0x02, 0x03, 0xfe, 0xf3, 0x02, 0x02,
  0x01, 0xf2, 0x00, 0xfb, 0xff, 0x02, 0xff, 0x02, 0xfe, 0x01, 0x02, 0x02,
  0xea, 0x01, 0x01, 0x01, 0x00, 0xff, 0x02, 0xff, 0xe7, 0xff, 0x00, 0x00,
  0xf5, 0x01, 0xff, 0x02, 0xfe, 0x01, 0xff, 0x00, 0xfb, 0x01, 0x01, 0xff,
  0x02, 0xfe, 0xef, 0x00, 0xff, 0xfc, 0x01, 0xec, 0x00, 0xfb, 0xf8, 0x03,
  0x02, 0xf1, 0x01, 0x01, 0xfe, 0xfe, 0xfe, 0x04, 0x01, 0xfe, 0x01, 0xfd,
  0xfa, 0xfa, 0x02, 0xff, 0xfe, 0x00, 0xfb, 0x02, 0xff, 0x01, 0xfe, 0xfe,
  0x00, 0x00, 0xfe, 0x01, 0xfd, 0x00, 0x01, 0xfc, 0x00, 0xfc, 0xf4, 0x00,
  0x00, 0xfe, 0x02, 0x00, 0xfb, 0x00, 0x02, 0xf7, 0xff, 0x00, 0x03, 0x01,
  0xff, 0x01, 0x00, 0xf9, 0x00, 0xfb, 0xfb, 0x02, 0x00, 0x01, 0xff, 0x04,
  0x01, 0xf9, 0x02, 0xf9, 0x00, 0xff, 0xfc, 0xff, 0xfd, 0x00, 0x03, 0x01,
  0xfa, 0x02, 0xff, 0x01, 0xf4, 0xff, 0x00, 0x00, 0xff, 0x01, 0x01, 0x02,
  0x00, 0x01, 0xfa, 0x01, 0x01, 0x00, 0xff, 0xfd, 0xff, 0x00, 0xfe, 0xfc,
  0x02, 0xfd, 0x01, 0xfe, 0x00, 0x00, 0xf9, 0xfe, 0xf8, 0xfd, 0xfb, 0xfc,
  0x00, 0xf8, 0xf6, 0x00, 0xff, 0x00, 0x01, 0xfe, 0xfd, 0x04, 0x00, 0x02,
  0x00, 0x00, 0xf9, 0xfb, 0x00, 0x00, 0x00, 0xff, 0xff, 0xfc, 0x03, 0xfe,
  0x01, 0xf7, 0xff, 0x02, 0xff, 0x01, 0xfe, 0x00, 0xfe, 0xff, 0xff, 0xfd,
  0x01, 0x00, 0xfd, 0x01, 0xf8, 0xff, 0xfc, 0x01, 0xff, 0xfe, 0xfe, 0x01,
  0xff, 0x00, 0xfc, 0x04, 0x00, 0xff, 0xf2, 0xf6, 0xfd, 0xf9, 0xfd, 0xfe,
  0xfc, 0x00, 0xff, 0x00, 0x01, 0xff, 0xfd, 0x00, 0x00, 0x05, 0x01, 0xfe,
  0x00, 0xfb, 0x00, 0xfb, 0x00, 0xff, 0xfb, 0xfd, 0xff, 0x00, 0xff, 0xf8,
  0x01, 0xff, 0x04, 0xff, 0xfc, 0xff, 0xfe, 0x00, 0x02, 0x03, 0xff, 0xfd,
  0x00, 0xfb, 0x00, 0xff, 0xff, 0x00, 0xfe, 0x00, 0xfd, 0xfd, 0xff, 0xff,
  0x00, 0xff, 0xff, 0xfe, 0xfe, 0x00, 0x02, 0x01, 0x01, 0x00, 0x02, 0x02,
  0x00, 0x01, 0x00, 0xfd, 0x01, 0xf8, 0xfe, 0x01, 0x02, 0xfe, 0xfb, 0x02,
  0x01, 0x00, 0xfc, 0x01, 0xff, 0x03, 0x00, 0x01, 0x00, 0xfc, 0xff, 0xfe,
  0x00, 0x00, 0xfc, 0xff, 0x05, 0x01, 0xfe, 0xfd, 0xfe, 0xff, 0xff, 0x02,
  0xfd, 0xff, 0x01, 0x02, 0xfd, 0xfd, 0xfa, 0xfd, 0xfd, 0x01, 0x00, 0xf5,
  0xfb, 0xfd, 0xfe, 0x02, 0xf9, 0xfc, 0xfc, 0xff, 0xfe, 0xff, 0x00, 0xff,
  0xfd, 0xfd, 0xff, 0xff, 0xe4, 0x03, 0xfd, 0xfe, 0x00, 0xfd, 0xfb, 0xfd,
  0xff, 0xff, 0xf8, 0xfe, 0xff, 0x02, 0x02, 0xfd, 0xfd, 0xfe, 0xfd, 0xfd,
  0xfd, 0xfe, 0x00, 0xfb, 0xfb, 0xff, 0x01, 0x00, 0x00, 0xfb, 0x01, 0xf9,
  0x00, 0xf7, 0xfe, 0xfa, 0xf3, 0xf7, 0xe8, 0xfd, 0xfe, 0xfe, 0xf6, 0xfd,
  0xfe, 0xf5, 0xff, 0xfb, 0x01, 0xfd, 0x00, 0xf7, 0xff, 0x00, 0xfe, 0x02,
  0xfe, 0xff, 0x02, 0xfe, 0xfd, 0xf4, 0x00, 0xff, 0xf7, 0xfd, 0xfd, 0xff,
  0x00, 0x02, 0xff, 0x03, 0x01, 0x00, 0x00, 0xfd, 0xff, 0xff, 0xfd, 0xff,
  0xf8, 0xf5, 0x02, 0xfe, 0xfc, 0x01, 0xfe, 0xf5, 0x01, 0x00, 0xfe, 0xf8,
  0xff, 0xfc, 0xff, 0xf7, 0x00, 0xfc, 0xfc, 0xf7, 0xfd, 0xff, 0xfe, 0x00,
  0xfa, 0xff, 0xff, 0x01, 0x02, 0xfb, 0xfb, 0xfd, 0xfe, 0xfa, 0xf9, 0xed,
  0xfb, 0xfd, 0xff, 0xfb, 0xf9, 0x01, 0x02, 0xfb, 0xff, 0xfc, 0x00, 0xff,
  0xfb, 0xfd, 0x00, 0x01, 0xfd, 0x00, 0x02, 0xff, 0xfd, 0xfa, 0xfc, 0x00,
  0x00, 0xf5, 0xfd, 0xfa, 0xff, 0xff, 0x03, 0xfb, 0xfb, 0x01, 0xfd, 0xfc,
  0xfe, 0xfa, 0xfc, 0xff, 0xfc, 0x03, 0xf8, 0xfa, 0xff, 0xee, 0x00, 0xfa,
  0xfe, 0xfc, 0x01, 0x01, 0xfc, 0xfd, 0x00, 0x02, 0x00, 0xf9, 0xf6, 0xf8,
  0xfd, 0x02, 0xfc, 0xfe, 0xfc, 0x02, 0xfd, 0x03, 0xf9, 0xfa, 0x01, 0xff,
  0xfd, 0x02, 0x00, 0x01, 0xf8, 0x00, 0x00, 0xfb, 0xfc, 0xff, 0xf7, 0xff,
  0xfa, 0xfd, 0xfa, 0x01, 0xff, 0xec, 0x01, 0xff, 0x01, 0xf2, 0xf8, 0xff,
  0xfa, 0xf9, 0x02, 0xfe, 0xfe, 0xfa, 0xfc, 0x01, 0xf5, 0xf9, 0x01, 0x00,
  0xfa, 0xfb, 0xfd, 0xfb, 0xfd, 0xfe, 0xff, 0xf8, 0x01, 0xff, 0x01, 0x00,
  0x01, 0x02, 0xff, 0xff, 0x01, 0x01, 0x01, 0xfe, 0x01, 0xff, 0x01, 0x01,
  0xfe, 0x01, 0xfe, 0xff, 0xfe, 0x02, 0x01, 0xfe, 0xfe, 0xff, 0xfe, 0x00,
  0x00, 0x01, 0x00, 0xfe, 0x00, 0xff, 0x00, 0x01, 0x00, 0x02, 0x00, 0x00,
  0xfe, 0x00, 0x01, 0x00, 0x00, 0xfe, 0xff, 0x01, 0x01, 0xff, 0x02, 0x01,
  0x00, 0x00, 0x00, 0xff, 0x01, 0x00, 0xfe, 0xff, 0x01, 0xff, 0xff, 0xff,
  0xfe, 0x01, 0xff, 0x00, 0x00, 0xff, 0x01, 0xfe, 0xff, 0xfe, 0x00, 0x00,
  0xff, 0x01, 0xff, 0x01, 0x02, 0xff, 0xff, 0x01, 0x01, 0x00, 0x01, 0x00,
  0x01, 0x01, 0xff, 0xfe, 0xff, 0x01, 0x00, 0xff, 0xff, 0x01, 0x01, 0x01,
  0x01, 0xfe, 0x01, 0x00, 0x01, 0x00, 0xff, 0xff, 0x01, 0xfe, 0x01, 0xff,
  0x01, 0xfe, 0x01, 0x02, 0xff, 0x00, 0xff, 0xfe, 0xfe, 0x01, 0x01, 0x00,
  0xfe, 0xfe, 0x00, 0xfe, 0x01, 0x01, 0xfe, 0xff, 0xfe, 0xfe, 0xff, 0x00,
  0x01, 0xff, 0x01, 0xff, 0xff, 0x01, 0xfe, 0x01, 0x01, 0xff, 0xff, 0xff,
  0x00, 0xff, 0xfe, 0x00, 0xff, 0x01, 0xfe, 0xff, 0x00, 0xff, 0x01, 0xff,
  0xfe, 0x02, 0x00, 0x00, 0x01, 0x01, 0xfe, 0x01, 0x00, 0xfe, 0x01, 0x00,
  0x01, 0xff, 0xff, 0x00, 0xff, 0xfe, 0xff, 0x01, 0xff, 0xff, 0x01, 0xff,
  0xff, 0x01, 0x01, 0x00, 0xff, 0xff, 0x02, 0x00, 0xff, 0x00, 0x01, 0xff,
  0xfe, 0xff, 0x00, 0x00, 0x00, 0x00, 0xff, 0xfe, 0x01, 0x00, 0x00, 0xfe,
  0x01, 0x00, 0x00, 0xff, 0x00, 0x00, 0xff, 0xff, 0x01, 0x01, 0xfe, 0x00,
  0xfe, 0x00, 0x00, 0x01, 0x01, 0x00, 0xff, 0x00, 0x00, 0x00, 0xfe, 0xff,
  0xff, 0x01, 0x00, 0x01, 0xfe, 0xfe, 0x01, 0xff, 0xff, 0x02, 0x01, 0xff,
  0x01, 0xff, 0x02, 0x00, 0x02, 0x00, 0xff, 0xff, 0x02, 0xfe, 0x01, 0xff,
  0xff, 0xfe, 0xff, 0xff, 0xff, 0xfe, 0xff, 0xfe, 0x00, 0x01, 0xff, 0xfe,
  0x00, 0x01, 0xff, 0xff, 0xff, 0x01, 0x00, 0x00, 0x00, 0xfe, 0x00, 0x01,
  0xff, 0x00, 0x01, 0x01, 0xff, 0xff, 0x01, 0xfe, 0xfe, 0x01, 0x00, 0xff,
  0x01, 0x01, 0x00, 0xff, 0xff, 0x02, 0x00, 0x01, 0x02, 0xff, 0x00, 0x01,
  0x01, 0xff, 0xff, 0xff, 0x01, 0x00, 0xff, 0x01, 0x00, 0x00, 0x00, 0x01,
  0xff, 0x00, 0x01, 0x00, 0xfe, 0xff, 0xff, 0xff, 0x02, 0x01, 0x00, 0xff,
  0x00, 0x01, 0xff, 0xff, 0xff, 0x00, 0x01, 0xfe, 0x01, 0x01, 0xff, 0x01,
  0x01, 0x01, 0x00, 0x01, 0x01, 0xfe, 0xff, 0x01, 0x00, 0x00, 0xfe, 0x01,
  0xff, 0x01, 0xfe, 0xfe, 0xff, 0xff, 0x02, 0xff, 0xff, 0x01, 0xfe, 0xff,
  0x02, 0xff, 0x00, 0x01, 0xff, 0x00, 0xff, 0xfe, 0x02, 0xfe, 0x00, 0x02,
  0x01, 0x01, 0xfe, 0xff, 0xff, 0xff, 0xff, 0x01, 0xff, 0xff, 0x02, 0x00,
  0x02, 0xff, 0x01, 0xff, 0xfe, 0x01, 0x01, 0xff, 0x00, 0x01, 0xff, 0xff,
  0x02, 0xff, 0xff, 0x02, 0x01, 0xfe, 0x00, 0x01, 0x00, 0x00, 0x01, 0x00,
  0xff, 0x01, 0x00, 0x01, 0xff, 0x00, 0x02, 0xfe, 0xff, 0x00, 0xff, 0x01,
  0x01, 0xff, 0xfe, 0x01, 0x01, 0xff, 0xfe, 0x00, 0xff, 0xff, 0x01, 0x00,
  0x00, 0x01, 0xff, 0xff, 0x02, 0x01, 0xff, 0xff, 0xff, 0x01, 0x00, 0xfe,
  0x02, 0xff, 0x00, 0xff, 0xfe, 0xfe, 0x02, 0xfe, 0xff, 0x00, 0xff, 0xff,
  0xff, 0xff, 0x00, 0x01, 0x02, 0x00, 0x00, 0xff, 0x00, 0x01, 0xff, 0x01,
  0xff, 0x02, 0x01, 0x00, 0xff, 0x01, 0x01, 0x01, 0x00, 0xff, 0xff, 0x00,
  0xfe, 0x00, 0xff, 0x02, 0x01, 0xff, 0xfe, 0x01, 0x00, 0x01, 0x01, 0xfe,
  0x01, 0x01, 0xff, 0x00, 0x01, 0xff, 0xfe, 0xff, 0x01, 0xff, 0x02, 0x00,
  0xfe, 0x02, 0x00, 0x02, 0x02, 0x03, 0xfd, 0xfe, 0x01, 0x02, 0x00, 0xf4,
  0xf5, 0x03, 0xe0, 0x03, 0xf2, 0x02, 0xf2, 0xf9, 0x01, 0xfe, 0xfe, 0xf5,
  0xff, 0x04, 0x00, 0x01, 0x02, 0xff, 0xff, 0xfe, 0xeb, 0xff, 0xfe, 0x01,
  0x00, 0x03, 0x02, 0xfe, 0x01, 0x03, 0x01, 0x03, 0x01, 0x01, 0xfc, 0x05,
  0xf0, 0x00, 0x01, 0xfa, 0xf1, 0xff, 0xff, 0xed, 0xff, 0xee, 0x01, 0x04,
  0xf9, 0x04, 0x01, 0x01, 0x03, 0x00, 0x03, 0x02, 0xea, 0x09, 0x03, 0xfd,
  0xf7, 0x03, 0x03, 0xfa, 0x01, 0xec, 0x00, 0xe8, 0xfa, 0xfd, 0x02, 0x02,
  0xf5, 0xf3, 0x02, 0x01, 0x02, 0x07, 0xff, 0x00, 0x03, 0xf2, 0xfc, 0xff,
  0x00, 0xfd, 0xfe, 0x01, 0x02, 0x00, 0x01, 0xae, 0x00, 0xfd, 0xf4, 0xf6,
  0xc4, 0xff, 0x01, 0x03, 0xf5, 0xec, 0x04, 0xfe, 0x00, 0x03, 0xfb, 0xf6,
  0xff, 0x01, 0xfa, 0x06, 0x01, 0x02, 0x01, 0xf5, 0xf9, 0x04, 0xf2, 0xff,
  0xfd, 0xfc, 0x02, 0xff, 0x00, 0xf4, 0xe6, 0x02, 0xfd, 0xf9, 0xf4, 0xfd,
  0xf2, 0xf4, 0xfa, 0x02, 0xfe, 0x00, 0x02, 0xfd, 0x04, 0x01, 0x02, 0x03,
  0xfb, 0xfe, 0xfc, 0xfe, 0xea, 0xb6, 0xff, 0xfe, 0xfd, 0xfb, 0x03, 0x03,
  0x00, 0x03, 0xfd, 0xea, 0x00, 0xea, 0xfb, 0x02, 0xf4, 0x03, 0xff, 0x04,
  0xfe, 0xf4, 0xf4, 0xed, 0x04, 0xfe, 0xff, 0xea, 0xfc, 0x04, 0xb3, 0xeb,
  0xff, 0xf9, 0x02, 0x03, 0xfc, 0x01, 0x02, 0x02, 0x00, 0x01, 0x06, 0xfb,
  0xfe, 0xfe, 0xea, 0xfd, 0x04, 0x02, 0x03, 0x03, 0x01, 0x01, 0xfe, 0xff,
  0x03, 0xfe, 0x01, 0x00, 0x02, 0xfd, 0xff, 0xf5, 0x04, 0x01, 0x02, 0x00,
  0xfc, 0xb4, 0xe9, 0xf6, 0xeb, 0x01, 0x01, 0xf1, 0x00, 0x01, 0x03, 0xc9,
  0xf3, 0xeb, 0xfe, 0x04, 0x02, 0xfa, 0x00, 0x03, 0xfd, 0x01, 0x01, 0x01,
  0x01, 0xfb, 0xea, 0x06, 0x05, 0x01, 0xfa, 0xfd, 0xfd, 0x00, 0x02, 0x02,
  0x02, 0x02, 0x00, 0x00, 0x02, 0xf6, 0x00, 0x01, 0x00, 0xff, 0x02, 0x00,
  0x01, 0x02, 0x02, 0xfe, 0xff, 0x01, 0x01, 0x00, 0x01, 0xff, 0x00, 0x02,
  0x00, 0x01, 0xff, 0xfe, 0x01, 0x03, 0x00, 0xf5, 0xff, 0x01, 0xff, 0x01,
  0x02, 0x02, 0xfe, 0x02, 0xf4, 0x02, 0x01, 0xfa, 0xf5, 0xff, 0xff, 0xfe,
  0x01, 0xf0, 0x02, 0x01, 0xff, 0xfb, 0xff, 0x01, 0xfa, 0x00, 0xfe, 0xff,
  0xfc, 0xf9, 0xfd, 0x00, 0xff, 0xfe, 0x01, 0x01, 0x04, 0x03, 0x00, 0xfe,
  0xf3, 0x01, 0xfa, 0x02, 0xf4, 0xf6, 0x00, 0x01, 0x01, 0xfe, 0x02, 0x03,
  0xfc, 0xfd, 0xfa, 0xff, 0x00, 0x01, 0x02, 0x00, 0xfe, 0x02, 0xff, 0x01,
  0x00, 0x01, 0xe8, 0x00, 0xfe, 0xff, 0xff, 0x02, 0xff, 0xf8, 0xfd, 0xf3,
  0x00, 0x04, 0x00, 0xfa, 0x02, 0x00, 0xff, 0xfe, 0x01, 0x01, 0x00, 0xee,
  0x02, 0x02, 0xf0, 0x00, 0x00, 0x00, 0x02, 0xff, 0x03, 0xf4, 0x02, 0x00,
  0x01, 0xf4, 0x03, 0xff, 0xf6, 0x01, 0xff, 0xfe, 0xee, 0xff, 0x02, 0x05,
  0x02, 0xff, 0x03, 0xfe, 0xfa, 0x00, 0xfd, 0x01, 0x00, 0x01, 0x03, 0x02,
  0x00, 0xfc, 0xfe, 0x04, 0xff, 0xfd, 0x01, 0x01, 0x02, 0x03, 0x00, 0x02,
  0x03, 0xff, 0xff, 0xf6, 0xfd, 0x01, 0xff, 0x00, 0xf3, 0x02, 0xfe, 0x02,
  0xfc, 0xfe, 0x00, 0xe8, 0x00, 0xff, 0x00, 0x00, 0x01, 0xff, 0xff, 0x03,
  0x00, 0xef, 0x00, 0xfc, 0x00, 0xfe, 0xfe, 0xff, 0xfe, 0x00, 0x02, 0x00,
  0xfd, 0xfb, 0x01, 0x02, 0x02, 0x00, 0xff, 0x03, 0xfb, 0xff, 0x00, 0x00,
  0xf7, 0x03, 0x00, 0xff, 0x03, 0x01, 0x01, 0xff, 0xf2, 0xfe, 0x02, 0x00,
  0x04, 0x00, 0xfe, 0x01, 0x01, 0x01, 0x01, 0xf4, 0x03, 0x04, 0x07, 0x00,
  0x01, 0xfd, 0x01, 0x00, 0xff, 0x02, 0xff, 0x02, 0x01, 0x02, 0xfb, 0x02,
  0xfc, 0x00, 0x01, 0xfe, 0xfb, 0x02, 0x01, 0xfa, 0xfa, 0xdc, 0x02, 0x02,
  0xfb, 0xff, 0xfc, 0x01, 0x03, 0x02, 0x01, 0xe5, 0x01, 0x03, 0x05, 0xfe,
  0xfc, 0xf9, 0x00, 0xff, 0xfe, 0x01, 0xff, 0x01, 0xfd, 0x06, 0xfb, 0xfc,
  0xff, 0x02, 0xfe, 0x01, 0xff, 0x00, 0xf0, 0x01, 0xf6, 0xff, 0x01, 0xf9,
  0xf7, 0x00, 0x01, 0xca, 0x00, 0xfd, 0x05, 0x00, 0xef, 0xae, 0x02, 0xfc,
  0xfe, 0x02, 0xff, 0xf3, 0xce, 0xfa, 0x9f, 0x02, 0x04, 0x01, 0x01, 0x00,
  0x00, 0xfc, 0xfd, 0xfc, 0xf0, 0x00, 0xfb, 0xff, 0xfb, 0xf5, 0x04, 0x00,
  0x00, 0xff, 0x02, 0x02, 0x9c, 0x02, 0xc4, 0x00, 0xfc, 0xfa, 0xff, 0x04,
  0xfd, 0x00, 0x00, 0xf1, 0x00, 0x01, 0xf6, 0xfa, 0xc1, 0xf8, 0x00, 0xf3,
  0xf4, 0x0a, 0xff, 0xf9, 0x02, 0xfd, 0x00, 0xf3, 0x03, 0x00, 0xfd, 0xfe,
  0x02, 0x02, 0x03, 0xef, 0x00, 0xfe, 0xf7, 0xff, 0xf1, 0xff, 0x00, 0xfd,
  0x03, 0xfb, 0x01, 0xfe, 0x01, 0xfb, 0xfa, 0x03, 0xf8, 0x00, 0xfd, 0x00,
  0xf9, 0xff, 0xfe, 0xf4, 0xfe, 0x05, 0x02, 0xfa, 0xf9, 0x01, 0xf8, 0x01,
  0x03, 0xf0, 0x00, 0xff, 0xff, 0xf6, 0x00, 0x01, 0xff, 0xfb, 0x00, 0xfe,
  0x01, 0x05, 0xf9, 0x01, 0x05, 0xfd, 0x03, 0xf3, 0xf7, 0xf9, 0xf7, 0xfe,
  0xed, 0xf5, 0xfa, 0xf9, 0xfa, 0x01, 0xed, 0xe7, 0x03, 0xff, 0x03, 0x00,
  0x01, 0xf5, 0x02, 0x00, 0x01, 0xff, 0xff, 0xf1, 0x02, 0x00, 0x01, 0xfa,
  0x01, 0xfc, 0xfe, 0x03, 0xa2, 0xfd, 0x04, 0x03, 0x02, 0x00, 0x01, 0xff,
  0x9e, 0x00, 0x01, 0xf0, 0xd2, 0x00, 0x01, 0xff, 0x03, 0xd9, 0x02, 0x01,
  0xfa, 0xfd, 0x03, 0x00, 0x02, 0x00, 0x99, 0xf3, 0x02, 0xfa, 0x00, 0xf8,
  0xf6, 0x02, 0xf7, 0x01, 0xfb, 0x9d, 0x02, 0x03, 0x00, 0xff, 0x00, 0xf0,
  0x01, 0xff, 0xff, 0x02, 0x01, 0x02, 0x01, 0x00, 0x00, 0x04, 0xfe, 0x00,
  0x01, 0x02, 0xff, 0x06, 0x02, 0xfe, 0xfc, 0xfb, 0x00, 0xf7, 0x0a, 0xfc,
  0xfa, 0x01, 0x02, 0xde, 0xfe, 0x00, 0xf8, 0x04, 0x03, 0x02, 0xff, 0x02,
  0x08, 0xff, 0x0a, 0x00, 0x00, 0x02, 0x03, 0xff, 0xf1, 0x00, 0xdb, 0xe8,
  0x01, 0xfa, 0xf0, 0x00, 0x02, 0x00, 0x01, 0xf9, 0xff, 0x00, 0x03, 0xff,
  0x05, 0x00, 0xed, 0x06, 0xea, 0x01, 0xfb, 0xf8, 0xf9, 0xfe, 0x00, 0x02,
  0xff, 0xfd, 0x01, 0xff, 0x02, 0xfb, 0x00, 0x05, 0xff, 0xf7, 0xfe, 0x03,
  0xff, 0xff, 0x02, 0x02, 0x01, 0xf3, 0xf8, 0xff, 0x01, 0x02, 0xfb, 0xf0,
  0xff, 0x02, 0x00, 0x03, 0xd3, 0x02, 0xff, 0x00, 0xfe, 0x0b, 0x02, 0xd9,
  0xff, 0x00, 0xea, 0x02, 0xd5, 0x00, 0xfd, 0xe8, 0x00, 0x03, 0xca, 0x01,
  0x01, 0x00, 0xfe, 0xfc, 0x00, 0x02, 0x01, 0x02, 0x01, 0x02, 0x01, 0x05,
  0xfe, 0xfa, 0x01, 0xff, 0xf4, 0x01, 0x01, 0xf4, 0x03, 0x01, 0x01, 0xfe,
  0xff, 0x01, 0xdb, 0xff, 0xf4, 0xe2, 0x01, 0x01, 0x00, 0xff, 0x02, 0xff,
  0xfb, 0x01, 0xd8, 0xe8, 0xfe, 0xfd, 0xe4, 0x00, 0xfb, 0xfc, 0xf3, 0x04,
  0xf7, 0x02, 0xff, 0xfe, 0x02, 0xfc, 0xff, 0x02, 0xff, 0x02, 0xff, 0x00,
  0xdd, 0xfe, 0x06, 0x01, 0xff, 0x00, 0x00, 0xff, 0xe1, 0xf7, 0x00, 0x01,
  0x01, 0x01, 0xf6, 0x01, 0x01, 0xe7, 0x01, 0x01, 0xf5, 0xf3, 0xfe, 0xfe,
  0x06, 0x04, 0xfe, 0xdb, 0x02, 0xff, 0xef, 0xf5, 0x02, 0x00, 0xf2, 0xf1,
  0xff, 0xff, 0xe5, 0x01, 0x02, 0xf8, 0xf6, 0xff, 0xff, 0x02, 0xfe, 0xd2,
  0x00, 0xfe, 0xfe, 0x00, 0x01, 0xfa, 0x02, 0x00, 0x02, 0xff, 0xff, 0xff,
  0x00, 0xff, 0xef, 0x02, 0xff, 0xff, 0x01, 0xdb, 0x02, 0x00, 0x04, 0x04,
  0xfd, 0xfe, 0xff, 0x01, 0xf4, 0x03, 0xff, 0x00, 0x01, 0x03, 0xf6, 0xff,
  0xfb, 0x01, 0x00, 0xfa, 0xfd, 0xfe, 0x00, 0x01, 0xfe, 0xfe, 0x03, 0xfd,
  0x02, 0xff, 0xff, 0x01, 0xfe, 0x02, 0x00, 0x00, 0xfe, 0x04, 0xfe, 0xfe,
  0x01, 0x01, 0xf9, 0xff, 0x00, 0x02, 0x03, 0x00, 0x00, 0x01, 0x02, 0x01,
  0xfc, 0xff, 0x01, 0x04, 0xf2, 0xfb, 0xff, 0xfd, 0xfd, 0x00, 0x01, 0xff,
  0x00, 0xff, 0x02, 0x04, 0xfa, 0xfe, 0xfb, 0x01, 0xfe, 0xfa, 0xfc, 0xf7,
  0x01, 0x00, 0xff, 0xfa, 0xf8, 0xf1, 0x02, 0xf9, 0x01, 0x02, 0x01, 0x01,
  0xf9, 0x00, 0x01, 0x02, 0xff, 0xf5, 0x02, 0x01, 0x00, 0xff, 0xfe, 0x01,
  0xff, 0xfe, 0xff, 0xff, 0x01, 0xfb, 0x00, 0x00, 0x02, 0x00, 0xfe, 0x01,
  0xff, 0xfd, 0xff, 0x00, 0x01, 0xf3, 0xfe, 0xf6, 0x00, 0xfc, 0xfe, 0x02,
  0x00, 0xfe, 0x00, 0xf8, 0x01, 0x01, 0xf7, 0x01, 0x05, 0x01, 0x01, 0xfd,
  0xfb, 0x01, 0xff, 0x02, 0xf5, 0xff, 0x00, 0xfd, 0x00, 0xfd, 0x00, 0x02,
  0x00, 0x00, 0xf5, 0xee, 0xf1, 0xfc, 0x01, 0x02, 0xff, 0x02, 0x01, 0xf7,
  0x02, 0xff, 0x03, 0x00, 0xfb, 0x00, 0x01, 0x00, 0x02, 0x02, 0xfd, 0xf9,
  0xfd, 0xf8, 0xff, 0x01, 0x00, 0x03, 0xf5, 0xfa, 0xfc, 0xff, 0x02, 0x00,
  0xf9, 0x01, 0x01, 0x00, 0x02, 0xfe, 0xfe, 0xf4, 0xfd, 0xfd, 0xf6, 0xf5,
  0x00, 0x03, 0x04, 0x00, 0x01, 0xfb, 0xfc, 0x03, 0xf2, 0xff, 0x01, 0x02,
  0xff, 0xfa, 0x05, 0xf8, 0x01, 0x01, 0x02, 0xff, 0x01, 0x01, 0x03, 0x01,
  0xff, 0x00, 0xfc, 0xff, 0xfc, 0xff, 0xfb, 0x02, 0x01, 0x03, 0xfb, 0x04,
  0xfe, 0xff, 0xfd, 0x01, 0xf5, 0x02, 0x01, 0x02, 0x01, 0xfc, 0x03, 0x01,
  0x02, 0xf3, 0x01, 0x04, 0xf1, 0xfd, 0x00, 0xff, 0x02, 0xf6, 0xdc, 0x00,
  0xf5, 0xff, 0x01, 0x01, 0xfa, 0xf4, 0x04, 0xf4, 0x00, 0x00, 0xfa, 0xf6,
  0xff, 0xff, 0x01, 0x00, 0x01, 0x03, 0x00, 0xff, 0x03, 0xc7, 0xff, 0x02,
  0x03, 0x01, 0xff, 0x00, 0x01, 0x01, 0x00, 0xe5, 0x00, 0x01, 0x01, 0x00,
  0xfe, 0x03, 0x00, 0x00, 0x01, 0x00, 0xfe, 0xf9, 0x02, 0x03, 0x01, 0xfc,
  0xff, 0x03, 0x05, 0xff, 0x02, 0x02, 0xf2, 0x02, 0xfd, 0x02, 0x02, 0x00,
  0xef, 0xfa, 0x02, 0xed, 0xfe, 0xf2, 0x01, 0x01, 0x01, 0xac, 0x01, 0xff,
  0xf9, 0x00, 0x00, 0x00, 0xf6, 0xf4, 0xa7, 0x01, 0xff, 0xfe, 0x02, 0xff,
  0x03, 0x01, 0xfd, 0xff, 0xff, 0x00, 0xe4, 0x01, 0xf4, 0xfd, 0x05, 0x00,
  0x04, 0x02, 0x00, 0x01, 0xa9, 0xff, 0xdd, 0x01, 0xfd, 0xff, 0x02, 0x03,
  0x03, 0x01, 0xf8, 0xfd, 0x00, 0xff, 0xf8, 0xf3, 0x01, 0xfc, 0xfe, 0x05,
  0xf1, 0x01, 0xf0, 0xfa, 0x01, 0x03, 0xfb, 0xfb, 0x01, 0xff, 0xfe, 0x02,
  0x01, 0xfe, 0x02, 0xda, 0xfe, 0x02, 0xf0, 0x00, 0xfe, 0x01, 0x00, 0xfc,
  0x01, 0xf1, 0x00, 0xff, 0xff, 0xf8, 0x07, 0xff, 0xf9, 0x01, 0xf4, 0x01,
  0xfe, 0x00, 0xff, 0x02, 0x01, 0xfc, 0x01, 0xfb, 0xfc, 0x02, 0xfa, 0xfe,
  0x00, 0xff, 0x01, 0x00, 0xfe, 0xfc, 0x01, 0x03, 0x01, 0x00, 0xfd, 0xff,
  0x00, 0xff, 0x04, 0x02, 0x02, 0x02, 0x00, 0xe1, 0xfa, 0x03, 0x01, 0x04,
  0xd0, 0x05, 0xff, 0x06, 0xfb, 0x01, 0xfd, 0xe9, 0x03, 0xfa, 0x00, 0x02,
  0xff, 0xec, 0x02, 0x01, 0x02, 0xfc, 0xff, 0xfc, 0xfa, 0xff, 0xfb, 0xfd,
  0x01, 0x02, 0x02, 0x02, 0xa7, 0xfe, 0x01, 0x01, 0x01, 0x01, 0x01, 0x02,
  0xa9, 0x02, 0xff, 0x00, 0xc6, 0x02, 0xff, 0x03, 0x01, 0xfd, 0x00, 0x05,
  0xf5, 0x02, 0x02, 0x01, 0x03, 0xff, 0xa5, 0x00, 0xff, 0x03, 0x01, 0xf3,
  0x04, 0x02, 0x01, 0x04, 0xfe, 0xa6, 0x02, 0x03, 0x00, 0xff, 0x00, 0x04,
  0x02, 0x02, 0xfd, 0x02, 0x00, 0x00, 0x01, 0xff, 0x00, 0xff, 0x00, 0xff,
  0x01, 0xff, 0xff, 0xff, 0xff, 0x01, 0xff, 0x00, 0xff, 0x00, 0xff, 0xff,
  0xff, 0xff, 0x00, 0x00, 0x01, 0xfe, 0x01, 0xfe, 0x01, 0xff, 0x00, 0xff,
  0xff, 0x01, 0xfe, 0x00, 0xff, 0x00, 0xfe, 0x01, 0x00, 0xfe, 0xfe, 0x00,
  0x00, 0x01, 0x00, 0x00, 0x00, 0x01, 0x00, 0x01, 0xfe, 0xff, 0xff, 0xff,
  0x00, 0xff, 0x00, 0x00, 0x00, 0x00, 0x01, 0x01, 0x02, 0x01, 0x00, 0xff,
  0xff, 0x00, 0x00, 0x00, 0xfe, 0x01, 0xfe, 0x00, 0x00, 0x00, 0x01, 0xff,
  0x00, 0x01, 0xff, 0xfe, 0xfe, 0x00, 0x01, 0xff, 0x00, 0x00, 0xfe, 0x01,
  0xff, 0xff, 0x00, 0xff, 0x01, 0x00, 0x00, 0x01, 0xff, 0x01, 0x00, 0xff,
  0x00, 0x00, 0x01, 0x01, 0xff, 0xff, 0x01, 0xff, 0xfe, 0xff, 0xff, 0x00,
  0x01, 0xff, 0xff, 0xff, 0x02, 0xff, 0x00, 0xfe, 0x00, 0xff, 0x00, 0xff,
  0x01, 0x00, 0x01, 0x01, 0x01, 0x01, 0xff, 0x00, 0x00, 0x01, 0xfe, 0x00,
  0xff, 0xff, 0xff, 0x00, 0x01, 0x01, 0x00, 0xff, 0xff, 0xff, 0x00, 0xfe,
  0x00, 0x00, 0xff, 0x01, 0x00, 0xfe, 0xff, 0x00, 0x00, 0xff, 0xff, 0x01,
  0x00, 0xfe, 0xff, 0x01, 0xff, 0x01, 0xfe, 0xff, 0x00, 0xfe, 0xfe, 0xff,
  0x00, 0x01, 0x01, 0xff, 0x00, 0xff, 0x00, 0xff, 0x00, 0xff, 0xff, 0xff,
  0xff, 0x00, 0x00, 0xff, 0xfe, 0x00, 0xff, 0xfe, 0xfe, 0x00, 0x00, 0x02,
  0xff, 0xfe, 0x01, 0xff, 0xff, 0xff, 0xff, 0x00, 0xff, 0x01, 0xfe, 0x00,
  0x01, 0xff, 0x01, 0xff, 0x01, 0x00, 0xfe, 0xff, 0xff, 0xff, 0xfe, 0xff,
  0x01, 0xfe, 0x00, 0xff, 0xfe, 0x00, 0xff, 0xfe, 0x00, 0x01, 0x00, 0x01,
  0xfe, 0xff, 0xff, 0xff, 0x01, 0x01, 0x00, 0x01, 0x00, 0x00, 0x01, 0xff,
  0x01, 0x00, 0xfe, 0x00, 0x00, 0x00, 0x00, 0x01, 0xec, 0xfb, 0x01, 0xfc,
  0xea, 0x00, 0xff, 0x00, 0xfd, 0x01, 0x03, 0x01, 0xfe, 0x02, 0xfb, 0x01,
  0xff, 0x00, 0x03, 0xf3, 0x02, 0xfe, 0xf3, 0x03, 0x02, 0x01, 0x02, 0x04,
  0x00, 0xfe, 0x02, 0xf9, 0x04, 0xf0, 0xfe, 0xff, 0x01, 0x05, 0x02, 0xfc,
  0x02, 0xff, 0xf4, 0x01, 0x01, 0x03, 0x01, 0x03, 0x00, 0xfc, 0x00, 0xf5,
  0xf7, 0x01, 0xf3, 0xff, 0x00, 0xfe, 0x01, 0xfc, 0xef, 0x02, 0x02, 0x01,
  0xed, 0xf2, 0x00, 0x01, 0x03, 0x03, 0xfa, 0x00, 0x0a, 0xfe, 0xf4, 0xf7,
  0xff, 0x04, 0xfc, 0x01, 0xfe, 0x02, 0x01, 0xfb, 0xfe, 0xff, 0x03, 0x01,
  0xff, 0x02, 0xf4, 0xff, 0xf1, 0xe2, 0xf9, 0xfc, 0x06, 0xfa, 0xfc, 0x01,
  0x02, 0x04, 0x00, 0x00, 0xfd, 0xfa, 0x04, 0xff, 0xfa, 0xf4, 0xe5, 0xfc,
  0x02, 0x04, 0x02, 0x02, 0xfe, 0xfe, 0xf3, 0xfe, 0xe8, 0xf9, 0xfe, 0x00,
  0x01, 0xfb, 0xff, 0x02, 0xfe, 0x01, 0x01, 0xdc, 0x01, 0xfe, 0xf0, 0x01,
  0xf8, 0x01, 0xfb, 0x03, 0x01, 0x02, 0x00, 0x00, 0xfe, 0x04, 0xf4, 0x01,
  0xfd, 0xf6, 0xf8, 0xed, 0xfc, 0x00, 0x03, 0x01, 0xfa, 0xfe, 0x01, 0x00,
  0x02, 0xfc, 0xff, 0x02, 0x02, 0xfd, 0x02, 0xfc, 0xff, 0xf9, 0x01, 0xfd,
  0xfc, 0xfd, 0xfc, 0xfc, 0x03, 0xfd, 0xfd, 0xe7, 0xfd, 0xff, 0x00, 0xf9,
  0x02, 0x01, 0xff, 0xfe, 0x01, 0xf8, 0x02, 0xfe, 0x01, 0xe2, 0x02, 0x00,
  0x04, 0xf2, 0xff, 0x01, 0x01, 0x03, 0x00, 0x02, 0x02, 0xfe, 0xfe, 0x02,
  0x01, 0xeb, 0x00, 0x01, 0x03, 0x02, 0x03, 0x06, 0x00, 0x03, 0x02, 0xfb,
  0xfe, 0xfd, 0x02, 0x03, 0x01, 0xfd, 0xf8, 0x03, 0x01, 0x01, 0xfe, 0x04,
  0xfe, 0x01, 0xff, 0xfe, 0x02, 0xf9, 0x02, 0xfe, 0xfe, 0x02, 0xfb, 0x01,
  0xff, 0x00, 0x00, 0x00, 0x01, 0x02, 0x03, 0x02, 0x02, 0x08, 0xf3, 0x01,
  0x01, 0x00, 0x01, 0xfe, 0x00, 0x01, 0x00, 0x00, 0x01, 0xff, 0x00, 0x00,
  0x01, 0x00, 0x00, 0x01, 0x01, 0x00, 0x00, 0x00, 0x00, 0xff, 0x00, 0x01,
  0xff, 0x01, 0x01, 0xff, 0xfe, 0xfe, 0xff, 0x00, 0xff, 0x01, 0x01, 0x00,
  0xff, 0xff, 0x00, 0xff, 0xff, 0x00, 0x01, 0x01, 0xff, 0xff, 0xff, 0x01,
  0xff, 0x01, 0xff, 0xff, 0x01, 0x01, 0x01, 0x01, 0x01, 0x00, 0x01, 0xff,
  0x00, 0x00, 0x00, 0x02, 0x00, 0xff, 0x01, 0x00, 0x00, 0xff, 0xff, 0x01,
  0xff, 0x01, 0x01, 0xfe, 0xfe, 0x02, 0x00, 0x00, 0xfe, 0x02, 0xff, 0x00,
  0x01, 0xff, 0x00, 0xff, 0x00, 0xfe, 0x00, 0x01, 0x01, 0x01, 0xfe, 0x00,
  0x00, 0x01, 0x02, 0x01, 0x00, 0x02, 0xfe, 0x02, 0x00, 0x02, 0xff, 0xff,
  0xfe, 0x01, 0xff, 0xff, 0x01, 0xff, 0x01, 0xfe, 0x00, 0x00, 0xff, 0x01,
  0xfe, 0xfe, 0x00, 0x00, 0xff, 0xff, 0x01, 0xff, 0xff, 0x00, 0x01, 0x00,
  0xff, 0x02, 0x00, 0x01, 0x01, 0x00, 0xff, 0x00, 0x00, 0x00, 0x00, 0x01,
  0xfe, 0x00, 0x01, 0xff, 0xfe, 0x02, 0xfe, 0x00, 0x00, 0x00, 0xff, 0x00,
  0xff, 0x00, 0xfe, 0xfe, 0xff, 0x02, 0xfe, 0x00, 0xff, 0xff, 0x00, 0xff,
  0x00, 0xff, 0x01, 0xff, 0x01, 0x00, 0xfe, 0x00, 0xff, 0x00, 0x00, 0xff,
  0x00, 0xff, 0xff, 0x00, 0xfe, 0x00, 0xfe, 0xfe, 0x00, 0x01, 0xff, 0xff,
  0xfe, 0x00, 0x00, 0xff, 0xff, 0x01, 0x02, 0x01, 0x01, 0x00, 0x00, 0x01,
  0x01, 0x01, 0x00, 0xff, 0x00, 0x01, 0x01, 0x01, 0x01, 0x00, 0x01, 0xff,
  0xff, 0x00, 0xff, 0x01, 0xff, 0xff, 0xff, 0x02, 0x00, 0xff, 0xff, 0x01,
  0x02, 0x00, 0xff, 0xff, 0x00, 0xff, 0x01, 0x00, 0xff, 0xfe, 0x01, 0x01,
  0x00, 0xff, 0x01, 0x00, 0x02, 0x00, 0xfe, 0xff, 0xfe, 0x00, 0x00, 0xff,
  0x00, 0xfe, 0xfe, 0x00, 0xf9, 0xfc, 0x01, 0xf0, 0xfe, 0xfb, 0xfe, 0xf9,
  0x01, 0xfe, 0x01, 0xfe, 0x02, 0x02, 0xf6, 0x00, 0xfc, 0xff, 0x01, 0x00,
  0xff, 0xfd, 0xf0, 0x00, 0xfb, 0x02, 0x00, 0x00, 0x00, 0x00, 0xff, 0xf9,
  0xff, 0xf9, 0xf7, 0xff, 0x01, 0x01, 0xff, 0xfb, 0x00, 0xfc, 0xff, 0xfe,
  0x01, 0xfe, 0xff, 0xfa, 0x02, 0xfc, 0xfe, 0xfa, 0xf8, 0x02, 0xe8, 0xfc,
  0xfd, 0xff, 0x01, 0xef, 0xf4, 0x01, 0xfc, 0xfe, 0xfd, 0xf5, 0xfd, 0x01,
  0xff, 0x01, 0x00, 0x01, 0x01, 0xf7, 0xf9, 0xf5, 0xfe, 0x00, 0xf0, 0xff,
  0x02, 0xff, 0xfd, 0xf7, 0xff, 0xfe, 0x01, 0xfb, 0xfc, 0x00, 0xf6, 0x01,
  0xf6, 0xff, 0xed, 0xfb, 0xfe, 0xf0, 0xf6, 0x03, 0x01, 0x00, 0x02, 0x00,
  0xff, 0xf3, 0x01, 0x02, 0x01, 0x01, 0xfa, 0xf9, 0xff, 0xff, 0x00, 0xff,
  0x00, 0xf9, 0xf6, 0xfb, 0x01, 0xf8, 0xfc, 0xff, 0x01, 0xfe, 0xff, 0xfe,
  0x00, 0xfe, 0xfa, 0x00, 0xff, 0x01, 0xff, 0xfd, 0xfa, 0xff, 0x00, 0x01,
  0x00, 0x00, 0xff, 0x00, 0xf9, 0x01, 0xff, 0xf4, 0x01, 0xfe, 0xee, 0xfd,
  0xfd, 0xfc, 0xfe, 0xff, 0xfd, 0x00, 0xff, 0x00, 0x01, 0x00, 0xff, 0xfe,
  0x01, 0xf8, 0x01, 0x02, 0x00, 0xfe, 0x01, 0xfd, 0x01, 0xff, 0xfa, 0xfa,
  0x00, 0x03, 0xf2, 0xfe, 0xfd, 0x00, 0xf8, 0xfe, 0xff, 0xff, 0x00, 0x00,
  0xfd, 0xf5, 0xff, 0xfb, 0x01, 0xf5, 0xff, 0xf9, 0xff, 0xf9, 0xfe, 0x01,
  0x02, 0x01, 0xff, 0xff, 0x01, 0xff, 0xfc, 0xff, 0xfe, 0x00, 0xfe, 0xfd,
  0x01, 0x00, 0xfe, 0x02, 0xfd, 0x01, 0xfe, 0x02, 0xf8, 0xf2, 0x00, 0x01,
  0x02, 0x03, 0xfd, 0xff, 0xff, 0xfb, 0xf9, 0x02, 0xfc, 0x02, 0xff, 0x01,
  0x00, 0xff, 0xff, 0xfc, 0x01, 0x03, 0xea, 0x00, 0xfc, 0xfc, 0xfc, 0xfd,
  0xff, 0x02, 0xfe, 0x03, 0xfe, 0x01, 0xf2, 0x00, 0xf1, 0xff, 0xff, 0x00,
  0xfb, 0x03, 0x01, 0x00, 0xff, 0xfe, 0x00, 0x02, 0xfd, 0x02, 0x02, 0x03,
  0xff, 0x03, 0x04, 0xeb, 0x03, 0x01, 0xfb, 0xfe, 0x02, 0x02, 0x03, 0x02,
  0xfa, 0x00, 0x03, 0xfa, 0xfe, 0x03, 0x00, 0x00, 0x00, 0xf5, 0xfe, 0x06,
  0x02, 0x01, 0xec, 0x03, 0x02, 0x03, 0x04, 0xf9, 0xea, 0xf6, 0x01, 0xf3,
  0xfa, 0xf1, 0x06, 0x02, 0xfd, 0x01, 0x04, 0xfe, 0xf6, 0x03, 0xff, 0xff,
  0xf6, 0xf6, 0xfe, 0x01, 0x03, 0x03, 0x00, 0xff, 0xf8, 0x03, 0xf9, 0x01,
  0x01, 0x01, 0xfe, 0x00, 0xfb, 0x09, 0x04, 0x00, 0x00, 0x01, 0x03, 0x05,
  0xff, 0x01, 0xf7, 0x01, 0x00, 0xf6, 0xfd, 0xff, 0x02, 0x00, 0xfe, 0xfd,
  0x03, 0x03, 0xf4, 0xfc, 0x01, 0xfe, 0xff, 0x04, 0xfe, 0xfd, 0xf1, 0x00,
  0x01, 0xf7, 0x00, 0x02, 0x01, 0x02, 0xf7, 0x02, 0x01, 0x02, 0x01, 0x00,
  0x01, 0x02, 0xec, 0x00, 0xfa, 0x03, 0x02, 0xf2, 0x01, 0xff, 0xf7, 0x02,
  0xfa, 0xfe, 0xfa, 0x02, 0x0d, 0x02, 0xff, 0x01, 0xff, 0x00, 0xf3, 0x02,
  0xfc, 0x07, 0xfe, 0xf8, 0xf5, 0xff, 0x00, 0x01, 0xf8, 0x01, 0x03, 0x03,
  0x03, 0xf3, 0x02, 0x01, 0x01, 0x00, 0x02, 0xfc, 0x02, 0xf7, 0x02, 0x02,
  0xfd, 0xff, 0x02, 0x02, 0x01, 0xfe, 0xfc, 0xff, 0xfe, 0x00, 0xfc, 0xff,
  0xff, 0x02, 0xfd, 0x01, 0x03, 0xf7, 0x03, 0x03, 0x01, 0xf1, 0x01, 0x03,
  0x03, 0xf9, 0xff, 0xf1, 0xff, 0xfc, 0x01, 0xff, 0x02, 0x01, 0x04, 0x01,
  0xff, 0xfd, 0x03, 0x01, 0x04, 0xfe, 0x02, 0xf9, 0x01, 0x01, 0x01, 0xff,
  0xff, 0x01, 0x02, 0xfe, 0x01, 0xff, 0xf8, 0x00, 0xf5, 0x00, 0x00, 0x01,
  0x02, 0x01, 0x01, 0x01, 0x02, 0x00, 0x03, 0x00, 0x00, 0x00, 0xf1, 0xfe,
  0x00, 0xfe, 0x04, 0x03, 0x03, 0xff, 0x01, 0x03, 0x02, 0xff, 0xf0, 0x01,
  0xfe, 0x01, 0x00, 0xff, 0x00, 0x01, 0xfc, 0xf3, 0x01, 0x01, 0xfe, 0x02,
  0x02, 0xf9, 0xfb, 0x03, 0xfe, 0xf5, 0x04, 0xfb, 0xf6, 0xff, 0x03, 0xe2,
  0xf9, 0x01, 0xf7, 0xfc, 0x01, 0x01, 0xf3, 0x01, 0x04, 0x01, 0x04, 0x02,
  0xff, 0x02, 0x00, 0x00, 0xf4, 0xfd, 0xe9, 0xfd, 0x03, 0xe8, 0xff, 0xea,
  0x02, 0x01, 0x02, 0xf7, 0xfe, 0x02, 0x02, 0xff, 0xf4, 0x00, 0xe1, 0x02,
  0x03, 0xfa, 0xfa, 0xfe, 0xf4, 0xfe, 0x01, 0x01, 0xfe, 0xff, 0x02, 0x01,
  0x02, 0xfb, 0x01, 0x00, 0xfe, 0xfb, 0xff, 0x00, 0x02, 0x00, 0x02, 0xff,
  0x02, 0xf7, 0xf5, 0x04, 0x02, 0xff, 0x00, 0xeb, 0xfe, 0x01, 0xff, 0x00,
  0xda, 0x02, 0x00, 0xff, 0xf7, 0x05, 0xff, 0xe0, 0xfe, 0xfe, 0xee, 0x02,
  0xe0, 0xfe, 0xfd, 0x00, 0x02, 0x02, 0xd0, 0x02, 0xfd, 0x00, 0xf2, 0x02,
  0x00, 0x01, 0xf2, 0x00, 0xff, 0x01, 0x00, 0x03, 0xfc, 0x03, 0x01, 0xfa,
  0xf6, 0x00, 0xfe, 0xf9, 0x01, 0xff, 0x00, 0xfd, 0x03, 0xfe, 0xdc, 0xf7,
  0xf8, 0xe4, 0x01, 0xfe, 0x02, 0x02, 0x02, 0xfd, 0xde, 0xf8, 0xda, 0xe5,
  0xfd, 0xfe, 0xf2, 0xfe, 0x04, 0xfc, 0xea, 0x00, 0xf5, 0xf9, 0xff, 0x02,
  0xf0, 0xfb, 0x01, 0x00, 0x00, 0x00, 0x00, 0xfe, 0xde, 0x04, 0x01, 0xff,
  0x02, 0x02, 0xff, 0x05, 0xe0, 0xfc, 0xfe, 0xfe, 0xfc, 0xf3, 0xf0, 0x04,
  0xff, 0xef, 0x0e, 0x02, 0x00, 0x04, 0xf7, 0xfa, 0x04, 0x01, 0xfd, 0xde,
  0xf6, 0xff, 0x03, 0xfc, 0xff, 0x01, 0xe5, 0xe9, 0xf6, 0x05, 0xee, 0x02,
  0x03, 0xf2, 0xe6, 0xfe, 0xfe, 0x01, 0xf9, 0xd1, 0xff, 0xfc, 0x00, 0xff,
  0x03, 0xfb, 0xff, 0xfe, 0xff, 0xfc, 0xff, 0xff, 0x02, 0x05, 0xfc, 0xff,
  0xff, 0xfd, 0x02, 0xde, 0x00, 0x01, 0x03, 0x02, 0xf9, 0x00, 0x00, 0x02,
  0x02, 0x02, 0xed, 0xff, 0x01, 0xd1, 0xff, 0xfd, 0x01, 0xfa, 0xfe, 0xf4,
  0x02, 0xfb, 0xfe, 0x01, 0x00, 0xfb, 0xff, 0x00, 0xef, 0xfa, 0x02, 0x02,
  0x01, 0xd7, 0xf4, 0x03, 0x03, 0xff, 0x01, 0x02, 0x00, 0x01, 0xfc, 0x03,
  0x02, 0xfe, 0xf4, 0xe0, 0xff, 0x05, 0x03, 0x00, 0x01, 0xfa, 0x01, 0xf8,
  0x01, 0xfe, 0x01, 0xff, 0xe6, 0x01, 0xff, 0x02, 0x03, 0xf7, 0x03, 0xfb,
  0x01, 0xfc, 0xf7, 0xfd, 0xfe, 0xf7, 0x01, 0xea, 0x02, 0xfc, 0xff, 0xff,
  0x00, 0xf9, 0xfb, 0xfe, 0x03, 0xff, 0x01, 0xfe, 0xfe, 0x03, 0xfe, 0x03,
  0xea, 0x01, 0x02, 0xe0, 0xf9, 0xf5, 0x01, 0xff, 0xf7, 0xfe, 0x01, 0x00,
  0x02, 0xff, 0xed, 0x01, 0x03, 0xfc, 0x00, 0x00, 0x03, 0x03, 0xf2, 0x01,
  0x00, 0xfe, 0x02, 0xfc, 0x02, 0xed, 0x01, 0xfd, 0x01, 0x04, 0x00, 0xfe,
  0xe8, 0xeb, 0xf8, 0xf4, 0xda, 0x00, 0xf6, 0xf0, 0xfe, 0xf6, 0xe2, 0x02,
  0x00, 0x01, 0x02, 0x00, 0xff, 0xe9, 0xfe, 0xfa, 0xf0, 0xe4, 0x01, 0xf6,
  0x00, 0xfe, 0x02, 0xff, 0xfc, 0x03, 0x03, 0x07, 0xf7, 0xf9, 0xfa, 0x01,
  0xff, 0xfa, 0x01, 0x02, 0xff, 0x00, 0x01, 0xff, 0x02, 0x00, 0xe7, 0x03,
  0x01, 0xed, 0x00, 0x00, 0xfd, 0xfe, 0x00, 0xed, 0x02, 0x03, 0xef, 0xfd,
  0x03, 0x01, 0xfe, 0xeb, 0xf9, 0x01, 0x01, 0xff, 0x00, 0x01, 0x01, 0xe7,
  0xf2, 0x01, 0x03, 0xfa, 0x00, 0x02, 0x00, 0x03, 0x00, 0xec, 0xfa, 0x01,
  0x02, 0x00, 0x00, 0x03, 0xf9, 0xfb, 0xf0, 0xff, 0xf6, 0xe0, 0xf7, 0xfc,
  0xfe, 0x01, 0x00, 0x03, 0xf6, 0x01, 0xfe, 0x00, 0xff, 0xfe, 0xf7, 0x00,
  0x01, 0x00, 0x00, 0xfe, 0xff, 0x02, 0x01, 0xfd, 0x00, 0xf6, 0xfd, 0x02,
  0x00, 0xff, 0x01, 0xfb, 0x00, 0x00, 0x10, 0x03, 0x01, 0x02, 0xf4, 0x03,
  0xf6, 0x00, 0xfd, 0xfc, 0xf5, 0x02, 0x02, 0x04, 0x00, 0x04, 0xfe, 0xfb,
  0xff, 0x00, 0x01, 0x00, 0xbc, 0x00, 0xc2, 0x02, 0xc3, 0xff, 0xe3, 0x15,
  0x02, 0xcd, 0x02, 0xff, 0x0f, 0x02, 0xfe, 0x03, 0xfe, 0xbb, 0x05, 0x02,
  0xe0, 0x00, 0x1d, 0xff, 0x02, 0xff, 0x01, 0xfe, 0x00, 0x01, 0x00, 0x00,
  0xfb, 0xfe, 0xfe, 0xf9, 0xfd, 0xcd, 0x02, 0xff, 0x00, 0x01, 0xfe, 0x00,
  0x02, 0x01, 0x00, 0xfd, 0x02, 0x00, 0xdc, 0xfe, 0xf7, 0x01, 0x01, 0xf7,
  0x02, 0xff, 0x01, 0xfd, 0xee, 0x01, 0x00, 0xfc, 0x02, 0xed, 0x02, 0xd0,
  0xfc, 0x00, 0x01, 0x02, 0x00, 0xfd, 0x02, 0x0c, 0xff, 0xf9, 0xf3, 0xfc,
  0x00, 0xe3, 0x02, 0xce, 0x02, 0xf6, 0x08, 0x02, 0x01, 0x00, 0x02, 0xfe,
  0x03, 0x00, 0xfc, 0x01, 0xfe, 0xfe, 0x03, 0xfb, 0x00, 0x01, 0xff, 0xf5,
  0x01, 0xff, 0x01, 0xfe, 0x11, 0x00, 0xff, 0xf9, 0xfc, 0x02, 0xfd, 0xfd,
  0xfc, 0xff, 0x00, 0xff, 0x04, 0x1b, 0x00, 0x07, 0xfe, 0x01, 0xeb, 0xfb,
  0x06, 0xff, 0xeb, 0x01, 0xfe, 0xda, 0x01, 0x01, 0xfc, 0x02, 0x00, 0xff,
  0xff, 0x02, 0x00, 0xff, 0xff, 0x02, 0x01, 0x02, 0xf2, 0xfe, 0x06, 0x15,
  0xf6, 0x03, 0xfe, 0x02, 0xf3, 0x00, 0xff, 0xc2, 0xd4, 0xf7, 0xb7, 0xfd,
  0xcf, 0x02, 0xfc, 0xff, 0x02, 0xc0, 0xff, 0x02, 0xfe, 0xc4, 0xfe, 0xd4,
  0x00, 0xfc, 0xfd, 0xff, 0x09, 0xff, 0xf3, 0xff, 0x0c, 0xfe, 0xfa, 0x01,
  0x01, 0xfc, 0xfb, 0x05, 0x00, 0x01, 0xcd, 0xff, 0x00, 0xfe, 0xfa, 0x00,
  0x00, 0xfd, 0xea, 0xfc, 0x00, 0x01, 0xeb, 0x01, 0xfd, 0xfc, 0xda, 0xfb,
  0xff, 0x02, 0xff, 0xff, 0xfe, 0xff, 0xe3, 0xba, 0x03, 0xfa, 0x02, 0xf3,
  0x00, 0x01, 0x01, 0x07, 0xfa, 0xc3, 0x02, 0x01, 0xce, 0xfe, 0x01, 0x03,
  0xff, 0xfe, 0x19, 0x02, 0xff, 0xfd, 0xc3, 0xfc, 0xfd, 0x02, 0x00, 0x00,
  0x00, 0xfe, 0xfe, 0x00, 0xff, 0xff, 0x00, 0x01, 0x01, 0x01, 0xff, 0x01,
  0xfe, 0x00, 0x00, 0xff, 0xff, 0xfe, 0x00, 0x01, 0x01, 0xff, 0xff, 0x00,
  0x00, 0x02, 0x00, 0x00, 0xfe, 0xfe, 0x01, 0x02, 0xff, 0x01, 0xfe, 0xfe,
  0xff, 0xff, 0x01, 0x01, 0x01, 0xfe, 0x00, 0x01, 0xff, 0xff, 0xfe, 0xff,
  0x01, 0xfe, 0xfe, 0xfe, 0x02, 0x01, 0x01, 0x00, 0xff, 0x00, 0xff, 0xff,
  0xff, 0x01, 0xfe, 0x00, 0xfe, 0xfe, 0x00, 0x00, 0x00, 0x00, 0xff, 0x00,
  0xfe, 0x01, 0x01, 0xff, 0xff, 0x02, 0xff, 0xff, 0xff, 0x01, 0xff, 0x00,
  0xff, 0x02, 0x01, 0x02, 0x01, 0x01, 0xff, 0x00, 0xff, 0x01, 0x00, 0xff,
  0x01, 0x02, 0xff, 0x01, 0x00, 0x01, 0x00, 0x00, 0x02, 0x00, 0x00, 0x00,
  0xfe, 0x00, 0xff, 0xfe, 0xff, 0xff, 0xff, 0x00, 0x01, 0xfe, 0x01, 0xff,
  0xff, 0xff, 0x02, 0xff, 0xfe, 0xff, 0x00, 0x00, 0x00, 0xff, 0x00, 0x01,
  0x02, 0xff, 0xff, 0x00, 0x02, 0xff, 0x02, 0xff, 0x00, 0x01, 0x01, 0xff,
  0xfe, 0x01, 0xff, 0x01, 0x02, 0x00, 0x00, 0x00, 0xff, 0x01, 0xff, 0xfe,
  0xff, 0xff, 0xff, 0x01, 0x00, 0x00, 0x01, 0xfe, 0x02, 0x00, 0x00, 0x01,
  0x02, 0xff, 0x01, 0xfe, 0xff, 0x00, 0xfe, 0x01, 0xff, 0xff, 0x02, 0x00,
  0xfe, 0x02, 0x02, 0x01, 0x01, 0xff, 0xff, 0x01, 0xfe, 0xff, 0xff, 0x01,
  0xfe, 0x00, 0xff, 0x01, 0x02, 0x01, 0x02, 0x01, 0xfe, 0x02, 0x00, 0xfe,
  0x00, 0x01, 0xff, 0xff, 0x01, 0xff, 0xfe, 0xff, 0xfe, 0x01, 0x01, 0xfe,
  0x00, 0xff, 0x01, 0x01, 0x02, 0xfe, 0x00, 0x01, 0x01, 0x01, 0x01, 0x01,
  0x00, 0x02, 0x01, 0x00, 0xfe, 0xfe, 0x00, 0xff, 0x00, 0xff, 0x01, 0x01,
  0xff, 0xff, 0xfe, 0x00, 0x00, 0x01, 0xff, 0x00, 0xff, 0x00, 0xff, 0xff,
  0xff, 0xfe, 0xfe, 0xfe, 0x00, 0xff, 0x01, 0x01, 0x01, 0xff, 0xff, 0xff,
  0x00, 0xff, 0x00, 0x00, 0xff, 0x00, 0x01, 0xff, 0xfe, 0xff, 0xfe, 0x00,
  0x01, 0x00, 0x00, 0x00, 0x01, 0x00, 0xff, 0x01, 0xfe, 0x00, 0x01, 0x01,
  0x01, 0x01, 0x00, 0x01, 0x02, 0xff, 0x01, 0x00, 0x00, 0x00, 0xff, 0xff,
  0x00, 0x01, 0x01, 0x00, 0x01, 0xff, 0x01, 0x00, 0xfe, 0x01, 0xfe, 0xff,
  0x00, 0x01, 0xfe, 0xfe, 0xff, 0xff, 0x00, 0xff, 0xff, 0x00, 0xff, 0xff,
  0xfe, 0x01, 0x00, 0x01, 0xff, 0x00, 0xff, 0x00, 0xff, 0x00, 0x01, 0x01,
  0x02, 0xff, 0x01, 0x01, 0x00, 0x01, 0xfe, 0x01, 0x00, 0xff, 0x01, 0x01,
  0x00, 0x00, 0xff, 0xff, 0x01, 0xff, 0xff, 0x00, 0x01, 0xff, 0x01, 0xfe,
  0xff, 0x01, 0x02, 0x00, 0xff, 0xff, 0xff, 0xff, 0x01, 0xff, 0xff, 0x01,
  0x00, 0x01, 0x01, 0x00, 0x01, 0x00, 0xff, 0xff, 0xfe, 0x01, 0xfe, 0x00,
  0x00, 0xfe, 0x01, 0x00, 0x01, 0x00, 0x00, 0x01, 0xff, 0xff, 0x01, 0xff,
  0x00, 0x00, 0xff, 0x01, 0xff, 0x01, 0xfe, 0x00, 0xff, 0x01, 0x00, 0xfe,
  0xff, 0x01, 0xfe, 0xfe, 0xff, 0xff, 0x01, 0xff, 0xff, 0xff, 0x00, 0x00,
  0xfe, 0x01, 0xff, 0x00, 0xfe, 0xff, 0x01, 0xff, 0x00, 0x00, 0x00, 0x00,
  0x00, 0xff, 0x01, 0xff, 0xff, 0xff, 0xff, 0xff, 0x00, 0xfe, 0x01, 0xfe,
  0xfe, 0xff, 0xfe, 0xfe, 0xfe, 0xff, 0x00, 0xff, 0xff, 0x01, 0x01, 0xff,
  0x00, 0x00, 0x00, 0x00, 0x01, 0x01, 0x01, 0x01, 0xff, 0x00, 0xfe, 0x00,
  0x00, 0xfe, 0x01, 0x00, 0x02, 0xff, 0x01, 0xfe, 0xff, 0xfe, 0xfe, 0x01,
  0x00, 0xfe, 0x01, 0xfe, 0x01, 0xff, 0x00, 0x00, 0x00, 0xfe, 0xff, 0xfe,
  0x01, 0x01, 0x01, 0x00, 0x00, 0x01, 0xff, 0xfe, 0x01, 0x01, 0x01, 0x01,
  0x00, 0x01, 0xff, 0xff, 0x00, 0xff, 0x00, 0x01, 0xff, 0x02, 0xff, 0x01,
  0x00, 0xfe, 0x00, 0xfe, 0x01, 0x00, 0x01, 0xfe, 0x00, 0x01, 0xff, 0x00,
  0x01, 0xfe, 0xff, 0x01, 0xff, 0x00, 0x01, 0xff, 0xff, 0x01, 0x00, 0xfe,
  0x00, 0x00, 0x01, 0xfe, 0x01, 0xff, 0x00, 0xff, 0x00, 0x00, 0xff, 0xff,
  0x00, 0x00, 0x00, 0x01, 0x00, 0xff, 0x00, 0x00, 0xfe, 0x01, 0xfe, 0x00,
  0xff, 0xfe, 0x00, 0x02, 0xfe, 0x00, 0x00, 0x02, 0x01, 0x01, 0x01, 0x01,
  0x01, 0x00, 0xfe, 0xfe, 0xff, 0xff, 0x01, 0x02, 0x01, 0xff, 0x00, 0x00,
  0xfe, 0x00, 0x00, 0xff, 0x01, 0xff, 0x01, 0x01, 0x01, 0xff, 0xff, 0xfe,
  0x01, 0x00, 0x00, 0xfe, 0x00, 0xff, 0xfe, 0x00, 0x00, 0x01, 0x01, 0x02,
  0x00, 0xff, 0xff, 0x01, 0x00, 0x00, 0xfe, 0xff, 0xff, 0xfe, 0x02, 0x00,
  0x00, 0x01, 0x00, 0xff, 0xff, 0x00, 0xff, 0xfe, 0xff, 0xff, 0x01, 0x01,
  0xfe, 0xff, 0x01, 0xff, 0x01, 0xff, 0xff, 0x00, 0xff, 0x01, 0x01, 0xff,
  0x00, 0xfe, 0x02, 0xfe, 0xfe, 0x00, 0xff, 0x01, 0x01, 0x01, 0x00, 0x01,
  0x00, 0xff, 0x00, 0xff, 0x01, 0x00, 0x01, 0xfe, 0x00, 0x00, 0x00, 0xff,
  0x00, 0xff, 0xfe, 0xfe, 0x02, 0xff, 0x02, 0x00, 0xfe, 0x01, 0x02, 0x01,
  0x00, 0x01, 0x01, 0x01, 0x01, 0xff, 0xff, 0x01, 0xff, 0xff, 0x00, 0xfe,
  0x01, 0x00, 0x00, 0x00, 0x00, 0xff, 0x01, 0x00, 0x01, 0x01, 0xff, 0x01,
  0x01, 0x00, 0x00, 0xff, 0x01, 0x01, 0x01, 0xff, 0xff, 0xff, 0xff, 0xff,
  0xff, 0x01, 0x00, 0xff, 0x00, 0xfe, 0x01, 0xfe, 0x01, 0xfe, 0xff, 0x01,
  0x00, 0x00, 0x01, 0x00, 0xff, 0xfe, 0x00, 0x00, 0x00, 0x01, 0xff, 0x00,
  0x00, 0x00, 0x00, 0x01, 0x00, 0xfe, 0x01, 0xfe, 0x00, 0x01, 0x01, 0x00,
  0x01, 0xfe, 0x01, 0x01, 0x00, 0x01, 0xff, 0x01, 0xfe, 0xfe, 0xfe, 0x00,
  0x01, 0x01, 0xff, 0x00, 0xfe, 0x01, 0x00, 0x00, 0xff, 0x00, 0x02, 0x00,
  0x00, 0xff, 0x01, 0x00, 0x00, 0xfe, 0xfe, 0x01, 0xfe, 0x00, 0xff, 0xff,
  0xfe, 0xfe, 0x01, 0x00, 0x00, 0xfe, 0x01, 0xff, 0x01, 0xff, 0x00, 0xff,
  0x00, 0xff, 0x01, 0x01, 0x00, 0x00, 0x01, 0xff, 0xff, 0x01, 0x01, 0x00,
  0x01, 0x01, 0x00, 0x00, 0xff, 0x01, 0x01, 0xff, 0xff, 0xfe, 0xfe, 0x01,
  0x00, 0x01, 0x00, 0x00, 0x01, 0xff, 0x00, 0xff, 0xff, 0x01, 0xff, 0x00,
  0x01, 0x00, 0x00, 0xfe, 0xff, 0xff, 0xfe, 0x01, 0x00, 0xfe, 0x01, 0x00,
  0x00, 0x00, 0x01, 0xff, 0x00, 0x01, 0xff, 0xfe, 0xfe, 0x00, 0x01, 0xff,
  0xfe, 0xff, 0x00, 0x00, 0x01, 0xfe, 0x00, 0x00, 0x02, 0xff, 0xfe, 0x00,
  0x02, 0x01, 0x00, 0x00, 0x01, 0x01, 0x00, 0x01, 0x01, 0x01, 0x00, 0x00,
  0x01, 0xfe, 0x01, 0x00, 0x00, 0xff, 0xff, 0x00, 0x00, 0xfe, 0x00, 0xff,
  0xfe, 0x00, 0x01, 0xff, 0xfe, 0x00, 0x02, 0xff, 0x00, 0x02, 0xfe, 0x01,
  0xff, 0x00, 0xff, 0x01, 0x00, 0xff, 0xff, 0x01, 0x00, 0xff, 0xff, 0xff,
  0x00, 0x00, 0xfe, 0x01, 0x01, 0x00, 0xfe, 0xff, 0xff, 0xfe, 0xff, 0xff,
  0xff, 0x00, 0xfe, 0xfe, 0xfe, 0x01, 0x00, 0xff, 0xfe, 0x01, 0xfe, 0x01,
  0x00, 0x01, 0x01, 0x01, 0xff, 0xff, 0x01, 0xfe, 0x01, 0x00, 0x01, 0x00,
  0x02, 0x01, 0x01, 0x00, 0x01, 0x01, 0x00, 0x01, 0x01, 0xfe, 0xfe, 0xfe,
  0xff, 0xff, 0xff, 0x00, 0x01, 0x00, 0x00, 0xff, 0x01, 0x01, 0x00, 0x01,
  0x01, 0x00, 0xff, 0x00, 0x01, 0xfe, 0x01, 0xff, 0x01, 0x01, 0xfe, 0xff,
  0x01, 0x01, 0x00, 0xfe, 0x00, 0xff, 0xff, 0x01, 0xff, 0xfe, 0xff, 0xff,
  0x01, 0xff, 0xfe, 0x00, 0xff, 0xff, 0x01, 0xff, 0x00, 0x00, 0xfe, 0x00,
  0xfe, 0xfe, 0x02, 0x01, 0xff, 0xfe, 0x00, 0x00, 0x01, 0xff, 0x01, 0xff,
  0xff, 0xff, 0x02, 0xff, 0x01, 0x01, 0xfe, 0xff, 0xfe, 0x00, 0xff, 0x01,
  0xff, 0x01, 0x01, 0x01, 0x00, 0x01, 0xfe, 0x01, 0x00, 0xff, 0xff, 0xfe,
  0x00, 0x00, 0xff, 0x00, 0x01, 0x02, 0x01, 0x00, 0x01, 0xff, 0x01, 0xfe,
  0xfe, 0xff, 0x01, 0x00, 0xff, 0xfe, 0x01, 0x00, 0xfe, 0xfe, 0x01, 0x02,
  0x01, 0x00, 0x00, 0x00, 0x02, 0xff, 0x01, 0x01, 0x00, 0xff, 0x00, 0x00,
  0x00, 0x01, 0x01, 0x01, 0xfe, 0x01, 0x01, 0xfe, 0x00, 0x00, 0x00, 0xff,
  0xff, 0x01, 0xff, 0x00, 0x00, 0xff, 0x00, 0x01, 0xfe, 0x00, 0xff, 0xff,
  0xfe, 0x00, 0x00, 0xff, 0xff, 0x00, 0xff, 0xfe, 0x01, 0xff, 0xff, 0x00,
  0xff, 0x00, 0xfe, 0x01, 0x00, 0xff, 0x00, 0x00, 0x02, 0x00, 0x00, 0xff,
  0xff, 0xfe, 0xfe, 0x00, 0x01, 0xfe, 0x01, 0xff, 0x00, 0xff, 0x00, 0xff,
  0xfe, 0x01, 0xfe, 0x01, 0xff, 0x01, 0x01, 0x01, 0xfe, 0x00, 0xff, 0x00,
  0x01, 0x02, 0x01, 0xff, 0x00, 0xff, 0x01, 0x00, 0xff, 0x00, 0x01, 0x01,
  0x01, 0x00, 0x02, 0x01, 0xfe, 0xff, 0xff, 0xff, 0x01, 0x01, 0x02, 0xff,
  0xff, 0xff, 0x00, 0xff, 0x02, 0x00, 0x01, 0x00, 0x01, 0xfe, 0xff, 0x01,
  0xff, 0xff, 0xfe, 0x01, 0x00, 0x00, 0x00, 0x00, 0x00, 0xff, 0xff, 0x00,
  0xff, 0x00, 0x01, 0xfe, 0xff, 0x00, 0xfe, 0xff, 0xfe, 0x02, 0x01, 0x01,
  0xff, 0x02, 0x01, 0xff, 0xff, 0x00, 0xfe, 0x01, 0x00, 0x01, 0x00, 0x00,
  0xff, 0x00, 0xff, 0x00, 0x00, 0x02, 0x01, 0x01, 0x00, 0xff, 0x00, 0xff,
  0x02, 0x00, 0xff, 0xfe, 0x01, 0xfe, 0x01, 0x00, 0xff, 0xff, 0x01, 0x00,
  0xff, 0xff, 0x02, 0x00, 0x02, 0x01, 0x01, 0x00, 0x02, 0xfe, 0x01, 0x00,
  0x00, 0xfe, 0xfe, 0xff, 0x00, 0x00, 0x02, 0x00, 0xff, 0x00, 0x00, 0xff,
  0xfe, 0xfe, 0x01, 0x01, 0xff, 0x00, 0x00, 0x02, 0x00, 0xfe, 0xfe, 0xfe,
  0x00, 0xfe, 0x01, 0x02, 0xfe, 0xff, 0x01, 0x01, 0x01, 0x01, 0xfe, 0x00,
  0x01, 0x02, 0x00, 0x00, 0xff, 0x00, 0xff, 0xff, 0xfe, 0x01, 0xff, 0xff,
  0xff, 0xfe, 0x00, 0x00, 0xff, 0xff, 0x00, 0x01, 0x00, 0x00, 0xff, 0xff,
  0x01, 0x00, 0x01, 0x00, 0x01, 0x01, 0xfe, 0x02, 0xff, 0xff, 0x00, 0x01,
  0x00, 0x02, 0xff, 0xff, 0x00, 0x01, 0x00, 0x01, 0x01, 0xff, 0x00, 0xfe,
  0xff, 0x00, 0xfe, 0xff, 0x01, 0xff, 0xff, 0x00, 0x01, 0xff, 0xff, 0x00,
  0xff, 0x01, 0x01, 0xff, 0xff, 0xfe, 0x00, 0xfe, 0xfe, 0x00, 0x01, 0xff,
  0x00, 0xff, 0x01, 0x00, 0xfe, 0xff, 0x02, 0xff, 0x01, 0xfe, 0xfe, 0xff,
  0x02, 0xff, 0x00, 0xff, 0xff, 0xff, 0x01, 0xff, 0xff, 0xfe, 0x01, 0x01,
  0x01, 0x00, 0xff, 0x00, 0x00, 0x01, 0x01, 0x01, 0xfe, 0xff, 0x02, 0xff,
  0x00, 0x02, 0x00, 0x01, 0xff, 0x02, 0x01, 0xff, 0x01, 0xff, 0x01, 0xfe,
  0x00, 0xfe, 0x01, 0x01, 0xff, 0x00, 0xff, 0x02, 0xfe, 0x02, 0x01, 0x00,
  0x02, 0x01, 0x01, 0xfe, 0x02, 0xff, 0xfe, 0x00, 0x00, 0x01, 0x01, 0xff,
  0x00, 0x01, 0xff, 0xff, 0x00, 0x00, 0x00, 0x01, 0xfe, 0xff, 0xfe, 0x00,
  0xff, 0x01, 0x01, 0xfe, 0x01, 0xff, 0xff, 0x01, 0x01, 0xff, 0x02, 0xff,
  0x01, 0x00, 0x01, 0x02, 0x00, 0xfe, 0xfe, 0xff, 0x00, 0x00, 0xfe, 0x01,
  0xfe, 0x01, 0xff, 0xfe, 0xff, 0xff, 0x01, 0xfe, 0x02, 0x01, 0x00, 0x01,
  0x00, 0x00, 0x01, 0xff, 0x01, 0xfe, 0x02, 0x00, 0xfe, 0x01, 0x00, 0x00,
  0x00, 0x01, 0xff, 0x01, 0xff, 0xfe, 0x00, 0x01, 0x00, 0xff, 0x00, 0x01,
  0x01, 0x02, 0x01, 0xfe, 0x00, 0x01, 0x00, 0x01, 0xff, 0xff, 0x01, 0xfe,
  0xfe, 0x04, 0x03, 0x04, 0x03, 0x09, 0x02, 0xf9, 0x01, 0xfe, 0x02, 0x02,
  0xff, 0xfe, 0xff, 0x01, 0x02, 0x03, 0x01, 0xff, 0x00, 0x01, 0x04, 0x02,
  0xef, 0x03, 0x02, 0x03, 0x01, 0x00, 0x02, 0x00, 0x00, 0x02, 0x03, 0xfe,
  0x00, 0x02, 0xff, 0x02, 0x05, 0x02, 0xfd, 0x02, 0xfd, 0x02, 0x00, 0xf7,
  0x02, 0x00, 0x00, 0xfe, 0x01, 0xfc, 0x01, 0xf7, 0xff, 0xfd, 0x00, 0x05,
  0xfd, 0x01, 0xf3, 0xec, 0xfd, 0xfd, 0xfe, 0x01, 0x00, 0x02, 0x03, 0x02,
  0x02, 0xff, 0xfe, 0x01, 0xfd, 0x01, 0xfb, 0x03, 0xff, 0x00, 0x03, 0x03,
  0x01, 0xf5, 0x03, 0x05, 0xfe, 0xff, 0xfc, 0x01, 0x00, 0xff, 0x05, 0x01,
  0xff, 0x02, 0x01, 0x01, 0x02, 0x01, 0x01, 0xff, 0xff, 0xfb, 0x01, 0x05,
  0xff, 0xf3, 0xfd, 0xf9, 0x01, 0x02, 0xfe, 0xff, 0x03, 0xfe, 0xf3, 0xf7,
  0x00, 0x00, 0x00, 0xfa, 0x01, 0x01, 0x01, 0x00, 0xff, 0x01, 0x01, 0x00,
  0x05, 0xfc, 0x02, 0xf7, 0x01, 0xff, 0x01, 0xff, 0xfd, 0x02, 0xff, 0x01,
  0xfa, 0x01, 0x01, 0x03, 0x00, 0x00, 0x04, 0xfe, 0xf6, 0x03, 0xff, 0x01,
  0x04, 0xff, 0x04, 0x04, 0x04, 0xfc, 0x03, 0x04, 0x03, 0xfc, 0x03, 0x00,
  0x01, 0x02, 0x01, 0xff, 0x02, 0x00, 0xff, 0xfb, 0xfd, 0x00, 0x02, 0xf1,
  0xfa, 0x02, 0xf6, 0x02, 0x00, 0xf8, 0xff, 0x01, 0x00, 0xf9, 0x02, 0x04,
  0x01, 0xfc, 0x02, 0x04, 0x00, 0x05, 0xf9, 0xfe, 0xff, 0x01, 0x02, 0x00,
  0xfe, 0x06, 0xff, 0x01, 0xfe, 0x00, 0xff, 0xff, 0x01, 0x01, 0x04, 0x03,
  0xfd, 0x03, 0x03, 0xff, 0xfa, 0x02, 0x00, 0xff, 0x03, 0xff, 0x03, 0x04,
  0x00, 0xfb, 0x04, 0x01, 0x02, 0xff, 0xfc, 0x04, 0x01, 0x01, 0x01, 0xfd,
  0x03, 0x01, 0x13, 0x02, 0xf7, 0xfe, 0x05, 0x01, 0xfe, 0x03, 0x00, 0x06,
  0x04, 0x00, 0xf2, 0x02, 0xff, 0xff, 0xff, 0x01, 0x00, 0x00, 0x00, 0x00,
  0x01, 0xff, 0x02, 0xff, 0x01, 0xff, 0xfe, 0x01, 0x01, 0x01, 0x02, 0xff,
  0xff, 0xff, 0x01, 0x00, 0x00, 0x00, 0x00, 0xfe, 0x01, 0x01, 0xfe, 0x00,
  0xff, 0xff, 0x01, 0x01, 0xff, 0xfe, 0x00, 0xff, 0x00, 0x01, 0x00, 0xff,
  0x00, 0x00, 0x02, 0x02, 0x00, 0x00, 0x00, 0x00, 0x00, 0x00, 0x01, 0x00,
  0x01, 0xff, 0x01, 0xfe, 0xff, 0x01, 0xff, 0x01, 0x02, 0x01, 0xff, 0xff,
  0xff, 0xfe, 0xfe, 0x01, 0x00, 0x00, 0x01, 0x01, 0x01, 0xff, 0x01, 0xff,
  0x00, 0x02, 0x00, 0x00, 0x01, 0xff, 0xff, 0x00, 0xfe, 0xfe, 0xff, 0x00,
  0x00, 0xfe, 0x00, 0xfe, 0x01, 0x00, 0x00, 0x00, 0xff, 0x01, 0x01, 0x00,
  0x01, 0xfe, 0x00, 0x01, 0x01, 0x00, 0x01, 0x02, 0x01, 0xff, 0x01, 0x01,
  0x00, 0xff, 0x00, 0x00, 0x00, 0xfe, 0x00, 0x01, 0xff, 0xfe, 0x01, 0xfe,
  0xff, 0x01, 0x01, 0x01, 0x01, 0x00, 0xff, 0x01, 0xff, 0xff, 0xff, 0x02,
  0x02, 0x00, 0xff, 0x01, 0x00, 0xff, 0xff, 0x01, 0x01, 0xff, 0xff, 0x00,
  0x01, 0xff, 0xfe, 0x02, 0x01, 0xfe, 0xff, 0x00, 0x00, 0x00, 0xff, 0xff,
  0xff, 0x00, 0xff, 0x01, 0xff, 0xff, 0xff, 0x00, 0x01, 0x01, 0x00, 0x00,
  0xfe, 0x00, 0x00, 0x00, 0x00, 0x01, 0xff, 0x00, 0x02, 0x01, 0xff, 0xff,
  0xff, 0xff, 0x01, 0xfe, 0x00, 0xff, 0x00, 0x01, 0x00, 0xff, 0x01, 0x01,
  0xff, 0x00, 0x02, 0x02, 0xff, 0xff, 0xff, 0xff, 0x02, 0x00, 0xff, 0x01,
  0x01, 0x01, 0xff, 0x02, 0x01, 0xff, 0x01, 0x01, 0x00, 0x01, 0x00, 0x01,
  0x01, 0xfe, 0xff, 0x01, 0x00, 0x01, 0x00, 0x01, 0xff, 0x00, 0x01, 0xff,
  0xff, 0xfe, 0x00, 0x00, 0xff, 0x01, 0x00, 0xff, 0x01, 0xff, 0xff, 0x01,
  0xfe, 0x01, 0x01, 0x01, 0xff, 0x00, 0x00, 0xff, 0x00, 0x00, 0x02, 0x00,
  0xff, 0x01, 0x02, 0xff, 0x05, 0xf0, 0x01, 0xff, 0x04, 0x01, 0x03, 0x01,
  0x01, 0x02, 0x02, 0x07, 0x02, 0x02, 0x03, 0x03, 0xfd, 0x01, 0x01, 0x00,
  0x01, 0xf5, 0x00, 0xf5, 0x02, 0x04, 0x02, 0xe6, 0xff, 0xf8, 0xfd, 0xde,
  0x03, 0x02, 0x07, 0x00, 0x00, 0x01, 0xff, 0xfe, 0xf1, 0xfa, 0x01, 0xff,
  0xfd, 0x07, 0x02, 0x03, 0xfe, 0xe4, 0x01, 0x00, 0x00, 0xff, 0x00, 0xfb,
  0xf8, 0xf5, 0xea, 0x02, 0x02, 0x03, 0xf4, 0x00, 0xf7, 0x00, 0xf8, 0x05,
  0x03, 0x01, 0xfa, 0x01, 0xef, 0x00, 0xfe, 0x03, 0xf8, 0x00, 0x01, 0x01,
  0xec, 0x03, 0xf9, 0x01, 0xfa, 0x02, 0x02, 0xfc, 0x00, 0x01, 0xfb, 0x04,
  0x03, 0x03, 0x02, 0x00, 0xff, 0xfd, 0x01, 0x00, 0x02, 0x0a, 0xfe, 0x01,
  0xfe, 0xf6, 0x01, 0xf1, 0xff, 0x03, 0xff, 0x00, 0x00, 0xfb, 0x02, 0x01,
  0x02, 0xe9, 0xf7, 0x02, 0xf0, 0x01, 0xfc, 0xff, 0x00, 0x03, 0x00, 0x01,
  0x02, 0xfa, 0x04, 0x01, 0xf9, 0x02, 0x01, 0x00, 0xe3, 0x03, 0x00, 0xf6,
  0xf3, 0xef, 0x03, 0xf6, 0xfc, 0x00, 0x01, 0x01, 0x00, 0x02, 0x01, 0x02,
  0x03, 0xfd, 0xff, 0x00, 0x03, 0x01, 0x02, 0x04, 0x02, 0x02, 0x03, 0x02,
  0x01, 0x01, 0x02, 0xeb, 0xff, 0x02, 0x01, 0x0e, 0xe5, 0x04, 0xfa, 0x02,
  0x02, 0xfe, 0x04, 0xfa, 0xff, 0x03, 0x02, 0x00, 0x03, 0xfa, 0x01, 0xfd,
  0x01, 0xe8, 0xff, 0xf1, 0x00, 0x00, 0x03, 0x01, 0x00, 0xff, 0xfe, 0x01,
  0xe9, 0xe2, 0xff, 0x00, 0x01, 0x01, 0x01, 0xf7, 0xe6, 0x00, 0xff, 0x05,
  0xe8, 0x01, 0x01, 0x04, 0x01, 0x02, 0x02, 0x02, 0xed, 0xfe, 0xfd, 0x02,
  0xfe, 0x01, 0xe7, 0x04, 0x04, 0x03, 0x01, 0xff, 0x04, 0x03, 0xf8, 0x03,
  0xfb, 0xec, 0x02, 0xfe, 0x01, 0x01, 0x03, 0x01, 0x00, 0xfc, 0xfb, 0x02,
  0x01, 0xff, 0xfe, 0xfe, 0x01, 0xff, 0x02, 0xfe, 0x00, 0xff, 0x00, 0x00,
  0xfe, 0xfe, 0x02, 0xfe, 0xff, 0x00, 0xff, 0x00, 0x01, 0xff, 0xff, 0x00,
  0x02, 0xff, 0x01, 0xff, 0x00, 0xff, 0xfe, 0xff, 0xff, 0xff, 0x00, 0xff,
  0xff, 0x01, 0xff, 0x00, 0xff, 0xff, 0xff, 0xff, 0x00, 0x01, 0x01, 0xff,
  0xfe, 0xff, 0x01, 0xfe, 0xff, 0x00, 0x00, 0x00, 0x02, 0x00, 0xff, 0xff,
  0x01, 0xff, 0xff, 0xfe, 0xfe, 0xff, 0x00, 0xff, 0x02, 0xff, 0x00, 0x00,
  0x00, 0x00, 0x00, 0x00, 0xff, 0x00, 0xff, 0xff, 0x00, 0x00, 0x00, 0x00,
  0xfe, 0x01, 0xff, 0x02, 0x01, 0x00, 0x00, 0x01, 0x01, 0x00, 0xfe, 0x00,
  0x01, 0xff, 0xfe, 0x00, 0xfe, 0xff, 0xfe, 0xff, 0x00, 0x02, 0xff, 0xff,
  0x00, 0x00, 0xff, 0x01, 0x00, 0xfe, 0xff, 0xfe, 0xfe, 0xfe, 0x00, 0x01,
  0x01, 0xff, 0xff, 0xff, 0xfe, 0x00, 0x01, 0x00, 0xff, 0x02, 0xff, 0xff,
  0x00, 0x00, 0x01, 0xfe, 0xfe, 0x01, 0x01, 0x01, 0x02, 0x00, 0x02, 0xff,
  0x00, 0x01, 0xfe, 0xfe, 0xfe, 0x01, 0x00, 0x01, 0xff, 0x01, 0x00, 0x00,
  0xff, 0x00, 0x01, 0xff, 0x00, 0x01, 0xff, 0xfe, 0x01, 0xff, 0x02, 0x00,
  0xff, 0x01, 0x02, 0x00, 0x01, 0xfe, 0x00, 0x00, 0x01, 0x01, 0xff, 0xff,
  0x00, 0x01, 0xff, 0xff, 0x01, 0xff, 0xfe, 0x00, 0xff, 0xff, 0x00, 0xff,
  0x02, 0x00, 0x00, 0xff, 0xff, 0xff, 0x02, 0x02, 0xff, 0x00, 0x01, 0x01,
  0x02, 0x01, 0x00, 0xfe, 0xff, 0x01, 0xff, 0x02, 0xfe, 0xff, 0xff, 0xfe,
  0xff, 0xfe, 0x00, 0xff, 0xff, 0xfe, 0x00, 0x01, 0x01, 0x01, 0xff, 0x01,
  0xfe, 0x01, 0x00, 0x00, 0xff, 0x01, 0x01, 0x02, 0xff, 0xfe, 0x00, 0x01,
  0xff, 0x00, 0x00, 0x00, 0x00, 0x01, 0xff, 0x00, 0xff, 0x00, 0xfe, 0x00,
  0x00, 0xff, 0x00, 0x00, 0x00, 0xfd, 0x00, 0xfd, 0xfb, 0x03, 0xfd, 0x01,
  0x02, 0x01, 0x00, 0xff, 0x02, 0xff, 0xec, 0xff, 0xfc, 0xfe, 0xff, 0xff,
  0x01, 0xfc, 0x02, 0xe6, 0x01, 0x00, 0x02, 0xfd, 0xfb, 0x00, 0xfd, 0xff,
  0xfe, 0x01, 0xfe, 0x01, 0x01, 0x00, 0x00, 0x00, 0xfd, 0xf8, 0xf2, 0xff,
  0x00, 0xff, 0xf3, 0x00, 0x00, 0x01, 0x02, 0xfe, 0xff, 0x01, 0x01, 0x00,
  0xfc, 0x02, 0xfe, 0xfc, 0x05, 0x00, 0x01, 0x04, 0x00, 0xff, 0xfe, 0x02,
  0xff, 0xfd, 0x01, 0x02, 0x00, 0xeb, 0xff, 0x00, 0x02, 0xf1, 0x01, 0x01,
  0x00, 0x02, 0x00, 0x01, 0xff, 0xff, 0x01, 0x03, 0x01, 0xfe, 0xfe, 0xfc,
  0x00, 0xf4, 0x02, 0xfe, 0xe2, 0x01, 0xfe, 0xfe, 0xff, 0x00, 0x01, 0xee,
  0x00, 0x01, 0xec, 0x02, 0xee, 0xfe, 0x01, 0x05, 0x01, 0x01, 0xe3, 0xff,
  0x00, 0xf7, 0xff, 0x00, 0xff, 0xff, 0xf5, 0x02, 0x01, 0x00, 0x00, 0x01,
  0xeb, 0xff, 0x00, 0xe7, 0x00, 0x01, 0x00, 0x01, 0x03, 0x01, 0x01, 0xfe,
  0xfe, 0x00, 0xee, 0xfe, 0xfc, 0xe9, 0x01, 0x01, 0x01, 0xff, 0x01, 0x00,
  0xff, 0xfc, 0xeb, 0xec, 0xe7, 0xff, 0xf9, 0xfe, 0xff, 0xeb, 0x02, 0x01,
  0xff, 0x00, 0x01, 0x02, 0xfe, 0xe9, 0x00, 0xf4, 0x02, 0xfe, 0xf7, 0x00,
  0xeb, 0x02, 0xfd, 0x00, 0xff, 0x01, 0x00, 0x04, 0xed, 0x01, 0xfd, 0xfe,
  0xfe, 0xfe, 0xfd, 0x01, 0x02, 0xf7, 0xf8, 0xff, 0xf3, 0x09, 0xfe, 0xeb,
  0xfe, 0x00, 0xfe, 0xed, 0x00, 0x00, 0xfe, 0xff, 0x01, 0x01, 0xfd, 0xfe,
  0xff, 0xfd, 0xfd, 0xfe, 0x00, 0xfe, 0xfd, 0xff, 0xff, 0x03, 0x01, 0xe3,
  0xfe, 0xff, 0xfa, 0x02, 0x01, 0x01, 0x00, 0x00, 0xfd, 0xff, 0x00, 0xfe,
  0x01, 0x04, 0xf4, 0x01, 0xfd, 0xff, 0x03, 0xe3, 0xfe, 0xff, 0xfe, 0xfe,
  0x00, 0x01, 0x01, 0x02, 0x01, 0x01, 0xff, 0xff, 0xf9, 0xff, 0xff, 0xfc,
  0xef, 0x03, 0xfe, 0xf8, 0xfd, 0xfb, 0xec, 0x03, 0xf9, 0xe9, 0xf6, 0x02,
  0xff, 0x01, 0x00, 0x00, 0x00, 0xfe, 0x03, 0x01, 0xc4, 0xf1, 0x00, 0x00,
  0xdc, 0x01, 0x01, 0xff, 0xff, 0x03, 0xd0, 0xfc, 0xff, 0x05, 0x01, 0x00,
  0xff, 0x01, 0xf7, 0xf9, 0xfa, 0x01, 0xff, 0xfd, 0xff, 0xfe, 0xff, 0x01,
  0xff, 0x02, 0x03, 0xd8, 0xfe, 0xfc, 0x01, 0xed, 0xf6, 0xe8, 0xc6, 0xf6,
  0x01, 0x00, 0xf5, 0xfe, 0xf3, 0xd5, 0x04, 0xfb, 0x04, 0xe8, 0x01, 0xe7,
  0x02, 0x01, 0xfd, 0x02, 0x01, 0xfb, 0x01, 0xfd, 0x05, 0xb4, 0xff, 0x02,
  0xf6, 0xed, 0xfd, 0xff, 0x01, 0xfe, 0xfd, 0x00, 0x00, 0x06, 0xff, 0xf4,
  0x01, 0xff, 0xf7, 0xfb, 0x06, 0xfe, 0x01, 0x02, 0xfc, 0xfc, 0xfa, 0x06,
  0xff, 0x02, 0xfe, 0xea, 0x01, 0xfe, 0xfd, 0xec, 0x05, 0xfe, 0xfc, 0xfc,
  0xfc, 0x02, 0xff, 0xff, 0xf6, 0x02, 0x00, 0xf7, 0x01, 0x01, 0xdb, 0xeb,
  0xfe, 0xfd, 0xff, 0xe2, 0xf7, 0xf0, 0xfe, 0xfb, 0xf8, 0x01, 0x00, 0x00,
  0x04, 0xff, 0x05, 0xfb, 0x01, 0xfe, 0xff, 0xfe, 0xe1, 0xf0, 0x01, 0x01,
  0xfe, 0x01, 0x00, 0x03, 0xff, 0xc5, 0xfe, 0xff, 0x02, 0xdf, 0xed, 0xfb,
  0xff, 0xfd, 0xff, 0xfc, 0xfd, 0xf7, 0xfd, 0xf6, 0xfc, 0xf3, 0xfe, 0x01,
  0xfd, 0xf1, 0xf7, 0xf4, 0xfe, 0x00, 0x02, 0x02, 0x01, 0xfd, 0x02, 0x01,
  0x01, 0xfd, 0xc9, 0xf4, 0xff, 0x00, 0xea, 0xfb, 0xf2, 0x00, 0xfc, 0x01,
  0xf7, 0xf9, 0x02, 0x00, 0xfe, 0x02, 0x02, 0x03, 0xf6, 0xff, 0x01, 0xe1,
  0xff, 0x05, 0xcd, 0xfe, 0xfd, 0xfd, 0xd8, 0xe6, 0x06, 0xd3, 0x00, 0xe7,
  0x00, 0xd3, 0xf7, 0xf1, 0xec, 0xfe, 0x02, 0xff, 0xf4, 0xff, 0x02, 0xff,
  0xfe, 0xf8, 0xfe, 0x02, 0xd1, 0xfc, 0xea, 0xff, 0xfe, 0x02, 0x01, 0xfe,
  0x01, 0xfe, 0x01, 0xff, 0xfe, 0x01, 0xfe, 0x00, 0x00, 0x00, 0xff, 0xfe,
  0x00, 0x00, 0xff, 0x01, 0xff, 0x00, 0xff, 0xff, 0x01, 0xfe, 0x01, 0xfe,
  0x00, 0x00, 0xff, 0xff, 0xff, 0x01, 0xfe, 0x01, 0xff, 0xfe, 0x01, 0x01,
  0x01, 0xfe, 0x00, 0x01, 0x00, 0x00, 0xfe, 0xff, 0xff, 0xff, 0x00, 0x01,
  0x00, 0xff, 0x01, 0x01, 0x01, 0x02, 0x00, 0x00, 0xff, 0xff, 0x01, 0x01,
  0x00, 0xff, 0x00, 0x01, 0xfe, 0xff, 0xff, 0x00, 0xff, 0xfe, 0xfe, 0x01,
  0x01, 0xff, 0xfe, 0xff, 0xff, 0xfe, 0x01, 0xfe, 0x00, 0x01, 0xff, 0xfe,
  0x01, 0xfe, 0x00, 0x00, 0x01, 0x00, 0x01, 0x00, 0x00, 0x00, 0xff, 0x00,
  0xff, 0x00, 0x01, 0xff, 0xff, 0xfe, 0x02, 0x00, 0xff, 0x01, 0x00, 0x01,
  0xfe, 0x00, 0xff, 0x02, 0x01, 0x00, 0xff, 0xfe, 0x00, 0x01, 0x01, 0x01,
  0x01, 0x01, 0xfe, 0xff, 0x01, 0xfe, 0xff, 0x00, 0x02, 0x01, 0x01, 0xfe,
  0x01, 0x01, 0xff, 0xfe, 0x00, 0xfe, 0xff, 0x00, 0xff, 0x01, 0x00, 0x01,
  0xff, 0x00, 0x01, 0xfe, 0x00, 0x01, 0xff, 0xff, 0x01, 0x01, 0x00, 0xfe,
  0x01, 0x01, 0x00, 0x00, 0xff, 0x00, 0xff, 0x01, 0xfe, 0x00, 0xfe, 0x01,
  0x01, 0xfe, 0xfe, 0xff, 0x00, 0xff, 0xff, 0x00, 0xff, 0x01, 0x00, 0xfe,
  0x01, 0xfe, 0x00, 0x00, 0x01, 0x01, 0xff, 0xfe, 0x01, 0xfe, 0x01, 0xfe,
  0xff, 0x00, 0xff, 0xfe, 0xfe, 0xff, 0xff, 0xff, 0x00, 0xff, 0x01, 0xff,
  0xff, 0xff, 0xff, 0x01, 0x01, 0x00, 0x00, 0xff, 0xfe, 0x01, 0x00, 0xff,
  0x01, 0x01, 0x01, 0xfe, 0x01, 0xfe, 0x01, 0x00, 0x00, 0x00, 0x00, 0x01,
  0xff, 0x00, 0x01, 0xfe, 0x01, 0x00, 0xff, 0x00, 0x00, 0xfe, 0xff, 0xfe,
  0xff, 0xff, 0x00, 0xff, 0x00, 0xfe, 0x00, 0xff, 0x00, 0xff, 0x01, 0xff,
  0x01, 0x01, 0xfe, 0x00, 0xff, 0x00, 0x00, 0x00, 0x01, 0xff, 0x00, 0xff,
  0xfe, 0xff, 0xff, 0xfe, 0x02, 0xfe, 0xfe, 0xff, 0xff, 0x00, 0x01, 0xff,
  0x00, 0x00, 0x01, 0x00, 0x01, 0x01, 0xfe, 0x01, 0x00, 0x00, 0xff, 0xff,
  0x01, 0x00, 0x00, 0x00, 0xff, 0x01, 0x01, 0x00, 0xfe, 0xfe, 0xff, 0xff,
  0xfe, 0xfe, 0x00, 0xfe, 0x00, 0x01, 0x00, 0xff, 0xff, 0xfe, 0x00, 0x01,
  0xfe, 0xfe, 0xff, 0x00, 0x01, 0xff, 0x01, 0x00, 0x00, 0xff, 0xff, 0xff,
  0xff, 0x01, 0x00, 0x00, 0xff, 0x00, 0x00, 0x01, 0x00, 0x01, 0x00, 0x00,
  0xff, 0x01, 0x00, 0xfe, 0xfe, 0xfe, 0xfe, 0xfe, 0xff, 0xff, 0xfe, 0x00,
  0xfe, 0x01, 0x01, 0x00, 0x01, 0x01, 0x01, 0xff, 0xfe, 0xff, 0x00, 0x02,
  0x00, 0xff, 0xff, 0xfe, 0xff, 0x01, 0xfe, 0xff, 0x00, 0x00, 0xff, 0x01,
  0xff, 0xff, 0x00, 0xfe, 0x01, 0xfe, 0x00, 0x00, 0x01, 0x00, 0xfe, 0xff,
  0x00, 0x01, 0x00, 0xfe, 0xff, 0x00, 0x00, 0x00, 0xfe, 0xfe, 0x01, 0x00,
  0x01, 0xfe, 0xff, 0x01, 0xff, 0xfe, 0xfe, 0x01, 0xff, 0x01, 0x01, 0xff,
  0xff, 0xfe, 0x01, 0xfe, 0x01, 0x01, 0x00, 0xff, 0x00, 0x01, 0x01, 0x00,
  0xfe, 0xfe, 0xfe, 0x01, 0xfe, 0x00, 0x01, 0xfe, 0x00, 0x01, 0xff, 0x02,
  0x00, 0xfe, 0xff, 0x01, 0xfe, 0x01, 0x01, 0x01, 0xfe, 0x01, 0x00, 0x01,
  0x01, 0xfe, 0x01, 0xff, 0xff, 0xfe, 0xfe, 0xff, 0xff, 0x02, 0x00, 0x00,
  0x00, 0xfe, 0xff, 0x00, 0xff, 0xff, 0x01, 0x00, 0xff, 0xfe, 0xfe, 0x00,
  0xfe, 0x01, 0x01, 0x00, 0xfe, 0xff, 0x00, 0xfe, 0xff, 0x00, 0x00, 0x01,
  0xff, 0x00, 0xfe, 0x01, 0x01, 0x00, 0x01, 0xfe, 0x01, 0xff, 0x00, 0x01,
  0xfe, 0x01, 0x00, 0xff, 0x01, 0xff, 0xfe, 0x00, 0x01, 0x00, 0xff, 0x01,
  0x00, 0xfe, 0x00, 0x00, 0x01, 0x01, 0xfe, 0xff, 0xff, 0x00, 0x02, 0xff,
  0x00, 0x00, 0x00, 0xfe, 0xff, 0x02, 0x00, 0x01, 0xfe, 0x01, 0x01, 0x01,
  0xff, 0xff, 0xff, 0x00, 0xfe, 0xff, 0xfe, 0x01, 0xff, 0xfe, 0x02, 0x00,
  0x00, 0x02, 0xff, 0x01, 0xfe, 0x00, 0x00, 0x00, 0x01, 0xfe, 0xff, 0xff,
  0x00, 0x00, 0xff, 0xff, 0x01, 0x01, 0x00, 0xff, 0x00, 0xff, 0xfe, 0xfe,
  0xff, 0xfe, 0x02, 0x00, 0xfe, 0x00, 0xff, 0xff, 0x01, 0x00, 0x01, 0x01,
  0x01, 0xff, 0x00, 0xff, 0x00, 0xff, 0x00, 0x00, 0x02, 0xfe, 0x01, 0x01,
  0xfe, 0xff, 0xfe, 0xff, 0x01, 0x00, 0x00, 0x01, 0x01, 0x00, 0xff, 0xff,
  0x00, 0xff, 0x00, 0xff, 0x01, 0x00, 0x00, 0xff, 0x02, 0xfe, 0xff, 0xff,
  0x00, 0x00, 0xff, 0x00, 0x02, 0x01, 0xff, 0x01, 0x00, 0x01, 0xff, 0x02,
  0xfe, 0x00, 0x01, 0xff, 0x01, 0xff, 0x00, 0x00, 0x00, 0x01, 0x00, 0x01,
  0x02, 0xff, 0x01, 0xfe, 0xff, 0x00, 0x00, 0xfe, 0x00, 0x00, 0x00, 0xff,
  0x01, 0xff, 0x01, 0xff, 0x02, 0x01, 0xff, 0x01, 0x00, 0x00, 0x01, 0xff,
  0x00, 0x01, 0xff, 0x00, 0xff, 0xfe, 0x00, 0x01, 0xfe, 0xff, 0x01, 0xff,
  0x01, 0xff, 0x01, 0x01, 0x00, 0x01, 0x02, 0xff, 0x00, 0x00, 0x01, 0x00,
  0x02, 0xfe, 0x01, 0xff, 0x02, 0x00, 0xfe, 0x00, 0x00, 0xff, 0xfe, 0xff,
  0xfe, 0x01, 0x01, 0x00, 0xfe, 0x02, 0x01, 0x01, 0x02, 0xff, 0x00, 0xff,
  0x01, 0x01, 0xfe, 0x00, 0xff, 0x01, 0xff, 0xfe, 0xff, 0x02, 0x02, 0x00,
  0x01, 0x00, 0x02, 0x00, 0x00, 0xfe, 0xff, 0xff, 0xff, 0x01, 0xfe, 0x00,
  0x01, 0x01, 0xff, 0xff, 0xff, 0x01, 0x01, 0xff, 0xfe, 0x00, 0xff, 0xfe,
  0x01, 0x01, 0x00, 0x00, 0xff, 0xff, 0xfe, 0xff, 0x00, 0x01, 0x02, 0x01,
  0xff, 0x01, 0xfe, 0x01, 0xfe, 0xfe, 0x00, 0xfe, 0x00, 0xff, 0xff, 0xff,
  0xff, 0x03, 0xff, 0x04, 0x04, 0x03, 0xfd, 0xf2, 0x00, 0xfd, 0x01, 0x00,
  0xfe, 0xe6, 0x02, 0x08, 0xfe, 0xf8, 0xfe, 0xff, 0x01, 0x01, 0x01, 0x01,
  0xee, 0x01, 0x02, 0x00, 0x00, 0xff, 0xf1, 0x00, 0xff, 0x01, 0x00, 0x01,
  0xff, 0x02, 0xfe, 0x01, 0x00, 0xfc, 0xf4, 0xf9, 0x03, 0xf6, 0x01, 0x0d,
  0x00, 0x01, 0x01, 0x00, 0x01, 0x02, 0x02, 0xfb, 0x07, 0xfd, 0xee, 0x01,
  0xe2, 0xef, 0xe6, 0xf4, 0x00, 0xfd, 0xfc, 0x00, 0xfe, 0xfc, 0x03, 0xff,
  0x02, 0x02, 0x01, 0xff, 0xff, 0x00, 0xfd, 0x00, 0x01, 0x03, 0x01, 0x00,
  0x02, 0x00, 0xfe, 0xfd, 0xfb, 0x03, 0xfb, 0xf8, 0x00, 0x03, 0x00, 0x00,
  0x00, 0x01, 0xff, 0x07, 0x00, 0xff, 0x01, 0x02, 0x02, 0xf6, 0x02, 0xfe,
  0x00, 0xf6, 0xfd, 0xee, 0xff, 0x03, 0x01, 0x00, 0xfa, 0xff, 0xf9, 0xfa,
  0x01, 0x00, 0xfd, 0xfc, 0xfc, 0x00, 0x01, 0xfe, 0x04, 0x04, 0x00, 0x03,
  0x00, 0x02, 0xff, 0xeb, 0x02, 0x02, 0xff, 0xf9, 0x03, 0x02, 0x01, 0xf2,
  0xec, 0x02, 0x01, 0xfd, 0x02, 0x02, 0x03, 0xff, 0x03, 0xfd, 0x01, 0x00,
  0x03, 0x05, 0xfe, 0x06, 0xfe, 0x01, 0xf6, 0xff, 0xfb, 0x01, 0x05, 0x00,
  0xfe, 0x04, 0x03, 0x00, 0xff, 0xfd, 0x00, 0xfe, 0x02, 0xff, 0x02, 0xe9,
  0xfe, 0xfe, 0xf6, 0xfe, 0x01, 0xd6, 0x01, 0x01, 0xf9, 0xf0, 0xfb, 0x01,
  0x0e, 0xf2, 0xff, 0x00, 0x01, 0xec, 0xfb, 0x05, 0xfd, 0xff, 0x01, 0x02,
  0xf1, 0x02, 0xf7, 0xfe, 0xfe, 0xff, 0xf6, 0xf7, 0xea, 0x00, 0xfb, 0x03,
  0xfc, 0xfe, 0xfc, 0xfc, 0xfd, 0x00, 0xde, 0x02, 0xfc, 0x02, 0x01, 0x05,
  0x02, 0xe3, 0xff, 0x04, 0x00, 0x00, 0xfc, 0x08, 0x02, 0xff, 0x02, 0xfe,
  0x00, 0xfd, 0x08, 0x01, 0xf6, 0xfd, 0x01, 0x02, 0xdf, 0x00, 0xff, 0xfd,
  0xf8, 0x01, 0xf3, 0xff, 0x02, 0x01, 0x00, 0x00, 0x01, 0x00, 0x01, 0xfe,
  0x00, 0xfe, 0x01, 0xfe, 0xff, 0x00, 0xfe, 0xff, 0xfe, 0x01, 0x01, 0xfe,
  0x01, 0xfe, 0xff, 0xff, 0x00, 0x00, 0xff, 0x01, 0x01, 0x02, 0xfe, 0xff,
  0xfe, 0x00, 0xfe, 0xff, 0xfe, 0x01, 0xfe, 0x01, 0xfe, 0x01, 0x00, 0xff,
  0xff, 0x01, 0x01, 0xff, 0xff, 0x02, 0x00, 0x00, 0x00, 0x00, 0xfe, 0xff,
  0x00, 0xfe, 0xfe, 0xff, 0xff, 0x00, 0x00, 0xfe, 0x02, 0x01, 0x00, 0xff,
  0x00, 0x02, 0x00, 0xff, 0x00, 0xff, 0x00, 0xfe, 0x00, 0x00, 0x00, 0xff,
  0xff, 0x00, 0x00, 0x00, 0x01, 0x00, 0x02, 0x00, 0x01, 0x01, 0x00, 0xff,
  0xfe, 0x01, 0x00, 0xfe, 0xff, 0x00, 0xfe, 0xfe, 0x00, 0x01, 0xff, 0x01,
  0x02, 0xfe, 0xff, 0xff, 0xff, 0x02, 0x00, 0xff, 0x01, 0xfe, 0x00, 0x00,
  0x01, 0xff, 0xff, 0x01, 0x00, 0x01, 0x01, 0xfe, 0x01, 0x01, 0xff, 0x00,
  0xfe, 0x01, 0x01, 0x00, 0x02, 0x00, 0xfe, 0x00, 0xff, 0x01, 0x00, 0xff,
  0x01, 0x00, 0xff, 0xfe, 0x01, 0x01, 0x00, 0xfe, 0xfe, 0xfe, 0xff, 0x00,
  0xfe, 0x00, 0x01, 0xff, 0x00, 0x00, 0x01, 0xff, 0x00, 0xff, 0x01, 0xff,
  0x01, 0xff, 0x01, 0xfe, 0xff, 0x00, 0x01, 0xff, 0xfe, 0x01, 0x01, 0x00,
  0xff, 0xfe, 0x00, 0x00, 0xff, 0xff, 0x00, 0x00, 0xff, 0xff, 0xfe, 0x01,
  0xff, 0x00, 0x01, 0xfe, 0x00, 0x02, 0x01, 0x00, 0x02, 0xff, 0x00, 0xfe,
  0x02, 0x01, 0x00, 0x00, 0x01, 0x01, 0xff, 0xfe, 0x00, 0x00, 0x01, 0x01,
  0x01, 0x00, 0xff, 0x00, 0xfe, 0xff, 0x01, 0x00, 0x01, 0x01, 0xff, 0xff,
  0xff, 0x01, 0x00, 0x00, 0x00, 0x01, 0x00, 0xff, 0xff, 0x00, 0x00, 0x01,
  0x01, 0x00, 0xff, 0xff, 0xff, 0xfe, 0xff, 0x01, 0x01, 0x01, 0x00, 0x00,
  0xff, 0x01, 0x00, 0x01, 0xfe, 0x01, 0xfd, 0xfe, 0xf9, 0x02, 0x01, 0x02,
  0x01, 0x01, 0x02, 0xff, 0x03, 0xfa, 0xfe, 0x01, 0x06, 0x00, 0x01, 0xfe,
  0x01, 0x00, 0x03, 0xe2, 0x00, 0x01, 0x01, 0xfd, 0x00, 0x00, 0xff, 0xfe,
  0x01, 0x00, 0x00, 0xfe, 0xfa, 0x03, 0xff, 0x02, 0xfe, 0x01, 0xfc, 0x00,
  0x00, 0x01, 0xec, 0xfe, 0x05, 0x02, 0x04, 0xf9, 0x00, 0x00, 0xfe, 0xe0,
  0x02, 0x01, 0x01, 0xff, 0x00, 0xf6, 0x01, 0xff, 0xfe, 0xff, 0xff, 0x06,
  0xec, 0xf5, 0xfb, 0x02, 0x00, 0x00, 0x00, 0xff, 0x02, 0x02, 0xff, 0x00,
  0x02, 0x00, 0xfa, 0xfd, 0x01, 0x07, 0x01, 0xff, 0x00, 0x00, 0x01, 0x01,
  0xfb, 0x00, 0xdf, 0x00, 0xff, 0x03, 0x00, 0x00, 0xfb, 0x02, 0x02, 0x01,
  0x00, 0x02, 0x01, 0xf5, 0xf1, 0xfc, 0xfb, 0xfd, 0xf3, 0x0d, 0xf4, 0xfe,
  0x00, 0x01, 0x03, 0x01, 0xfe, 0x02, 0x00, 0xff, 0x01, 0x01, 0x01, 0xfd,
  0x01, 0x03, 0x00, 0x00, 0x01, 0x01, 0xff, 0xff, 0x02, 0x01, 0x02, 0x01,
  0xff, 0x03, 0x0b, 0x00, 0x05, 0x02, 0xfc, 0x01, 0xfe, 0xfd, 0x01, 0xf8,
  0x01, 0x01, 0x00, 0xf8, 0xf8, 0x00, 0xfa, 0xfc, 0x02, 0xfd, 0x01, 0xff,
  0x00, 0x00, 0x00, 0x02, 0x02, 0xfe, 0xff, 0x08, 0x00, 0x01, 0xfd, 0x00,
  0x08, 0xf9, 0x02, 0xf8, 0xfb, 0x04, 0x00, 0x17, 0xf7, 0xff, 0xf9, 0x09,
  0xfb, 0xff, 0x02, 0xfc, 0x01, 0xfe, 0x00, 0x01, 0xfe, 0xe8, 0x02, 0x01,
  0x02, 0x00, 0x01, 0xff, 0x00, 0x00, 0x00, 0xfa, 0x00, 0xff, 0xfe, 0x03,
  0xf8, 0x01, 0xff, 0x00, 0xfe, 0x04, 0x00, 0x02, 0xfa, 0x02, 0xff, 0xfc,
  0xfa, 0x02, 0xff, 0x00, 0x00, 0xfc, 0x04, 0x01, 0x01, 0x01, 0x03, 0x01,
  0x00, 0x00, 0xf8, 0x02, 0xff, 0x08, 0x00, 0xfe, 0x03, 0x01, 0x01, 0x01,
  0xfd, 0xf9, 0x01, 0x03, 0xff, 0x00, 0x02, 0xfa, 0x01, 0x02, 0xfd, 0x03,
  0xfe, 0xff, 0xff, 0xfe, 0x01, 0x00, 0x00, 0x00, 0xff, 0x00, 0xff, 0x00,
  0x00, 0xff, 0xfe, 0xff, 0xfe, 0x02, 0xfe, 0xff, 0x00, 0x00, 0xff, 0xfe,
  0x02, 0x00, 0x00, 0x01, 0x00, 0x01, 0x00, 0x01, 0x00, 0x01, 0x01, 0xff,
  0xff, 0x00, 0x00, 0xff, 0x00, 0xff, 0xfe, 0x01, 0x00, 0x02, 0x01, 0x00,
  0xff, 0x01, 0xff, 0x00, 0x01, 0x01, 0xfe, 0x00, 0xff, 0x01, 0xff, 0x00,
  0x00, 0xff, 0x00, 0x01, 0x01, 0x01, 0xfe, 0xfe, 0x01, 0xff, 0xff, 0x02,
  0x00, 0xfe, 0x00, 0x01, 0x01, 0x00, 0x00, 0x00, 0x01, 0x01, 0x00, 0xfe,
  0x00, 0xff, 0xff, 0x01, 0x00, 0xff, 0x01, 0x01, 0xff, 0x01, 0xfe, 0xfe,
  0x00, 0xff, 0xff, 0xff, 0x00, 0x00, 0xfe, 0x00, 0xff, 0x00, 0xff, 0x02,
  0x01, 0x02, 0xff, 0x00, 0x01, 0x00, 0xff, 0xff, 0x00, 0xfe, 0x00, 0xff,
  0xff, 0x01, 0xfe, 0xff, 0x00, 0x00, 0x01, 0xfe, 0xfe, 0x01, 0xff, 0xfe,
  0xff, 0x01, 0x00, 0xff, 0xff, 0x00, 0x00, 0x00, 0x01, 0x01, 0x01, 0xfe,
  0x00, 0x02, 0xfe, 0x00, 0x01, 0xff, 0xfe, 0xff, 0x01, 0x00, 0x00, 0x00,
  0xff, 0x00, 0xfe, 0xff, 0x00, 0x01, 0xff, 0xfe, 0xff, 0x01, 0x01, 0x00,
  0xff, 0x00, 0x01, 0xfe, 0x00, 0x00, 0xff, 0x00, 0x01, 0x00, 0x00, 0xfe,
  0xfe, 0x00, 0x01, 0xff, 0x00, 0xff, 0xff, 0xfe, 0x00, 0xff, 0x02, 0x00,
  0x01, 0xfe, 0x01, 0xff, 0xfe, 0x01, 0x00, 0x00, 0x01, 0xff, 0xff, 0x01,
  0x01, 0xff, 0xff, 0x00, 0x01, 0x01, 0xff, 0x02, 0xff, 0xfe, 0x01, 0xff,
  0x00, 0xfe, 0xfe, 0xfe, 0x00, 0x00, 0x01, 0xff, 0x01, 0x01, 0xfe, 0x00,
  0xff, 0xff, 0xff, 0x00, 0xff, 0xff, 0xfe, 0x01, 0x01, 0x01, 0xfe, 0x00,
  0xff, 0x00, 0x00, 0x00, 0x00, 0x00, 0x01, 0x01, 0x00, 0x00, 0xff, 0x01,
  0xff, 0xfe, 0x00, 0x01, 0x01, 0xff, 0x01, 0xff, 0x00, 0x01, 0x01, 0x00,
  0x00, 0x02, 0xff, 0x00, 0xff, 0xfe, 0x00, 0xff, 0x01, 0xff, 0x01, 0xff,
  0x00, 0x01, 0x00, 0x02, 0xff, 0xff, 0x00, 0x01, 0x01, 0xff, 0x02, 0xfe,
  0x00, 0xff, 0xfe, 0xff, 0x01, 0xfe, 0xff, 0xfe, 0x01, 0xff, 0x01, 0xff,
  0x01, 0xfe, 0x01, 0x00, 0xfe, 0x01, 0xff, 0x00, 0xff, 0x00, 0x01, 0x00,
  0xfe, 0xff, 0x01, 0x00, 0x00, 0x00, 0xff, 0x01, 0x01, 0x00, 0xff, 0x00,
  0x01, 0x00, 0xff, 0xff, 0xff, 0xff, 0x00, 0x01, 0x01, 0xff, 0x01, 0x00,
  0x00, 0x00, 0xff, 0x00, 0xfe, 0xff, 0x00, 0xff, 0x00, 0x01, 0x01, 0x02,
  0x00, 0xfe, 0xff, 0xfe, 0x01, 0xfe, 0xff, 0xfe, 0x01, 0xfe, 0xff, 0x00,
